fc1ff3ce
fc10e710
fc1ff3ce
fc10e710
fc1ff3ce
fc10e710
fc1ff3ce
fc10e710
fc1ff3ce
fc10e710
fc1ff3ce
fc10e710
fc1ff3ce
fc10e710
fc1ff3ce
fc10e710
fc1ff3ce
fc10e710
fc1ff3ce
fc10e710
fc1ff3ce
fc10e710
fc1ff3ce
fc10e710
fc1ff3ce
fc10e710
fc1ff3ce
fc10e710
fc1ff3ce
fc10e710
fc1ff3ce
fc10e710
fc1ff3ce
fc10e710
fc1ff3ce
fc10e710
fc1ff3ce
fc10e710
fc1ff3ce
fc10e710
fc1ff3ce
fc10e710
fc1ff3ce
fc10e710
fc1ff3ce
fc10e710
fc1ff3ce
fc10e710
fc1ff3ce
fc10e710
fc1ff3ce
fc10e710
fc1ff3ce
fc10e710
fc1ff3ce
fc10e710
fc1ff3ce
fc10e710
fc1ff3ce
fc10e710
fc1ff3ce
fc10e710
fc1ff3ce
fc10e710
fc1ff3ce
fc10e710
fc1ff3ce
fc10e710
fc1ff3ce
fc10e710
fc1ff3ce
fc10e710
fc1ff3ce
fc10e710
fc1ff3ce
fc10e710
fc1ff3ce
fc10e710
fc1ff3ce
fc10e710
