fc2b4035
fc2cdeab
fc2b3478
fc2d9a72
fc29db2b
fc29ce7d
fc2b18ca
fc2cc2ee
fc2a6991
fc2d8ec4
fc2a5de3
fc2db630
fc2b4035
fc2cdeab
fc2b3478
fc2d9a72
fc29db2b
fc29ce7d
fc2b18ca
fc2cc2ee
fc2a6991
fc2d8ec4
fc2a5de3
fc2db630
fc2b4035
fc2cdeab
fc2b3478
fc2d9a72
fc29db2b
fc29ce7d
fc2b18ca
fc2cc2ee
fc2a6991
fc2d8ec4
fc2a5de3
fc2db630
fc2b4035
fc2cdeab
fc2b3478
fc2d9a72
fc29db2b
fc29ce7d
fc2b18ca
fc2cc2ee
fc2a6991
fc2d8ec4
fc2a5de3
fc2db630
fc2b4035
fc2cdeab
fc2b3478
fc2d9a72
fc29db2b
fc29ce7d
fc2b18ca
fc2cc2ee
fc2a6991
fc2d8ec4
fc2a5de3
fc2db630
fc2b4035
fc2cdeab
fc2b3478
fc2d9a72
fc29db2b
fc29ce7d
fc2b18ca
fc2cc2ee
fc2a6991
fc2d8ec4
fc2a5de3
fc2db630
fc2b4035
fc2cdeab
fc2b3478
fc2d9a72
fc29db2b
fc29ce7d
fc2b18ca
fc2cc2ee
fc2a6991
fc2d8ec4
fc2a5de3
fc2db630
fc2b4035
fc2cdeab
fc2b3478
fc2d9a72
fc29db2b
fc29ce7d
fc2b18ca
fc2cc2ee
fc2a6991
fc2d8ec4
fc2a5de3
fc2db630
fc2b4035
fc2cdeab
fc2b3478
fc2d9a72
fc29db2b
fc29ce7d
fc2b18ca
fc2cc2ee
fc2a6991
fc2d8ec4
fc2a5de3
fc2db630
fc2b4035
fc2cdeab
fc2b3478
fc2d9a72
fc29db2b
fc29ce7d
fc2b18ca
fc2cc2ee
fc2a6991
fc2d8ec4
fc2a5de3
fc2db630
fc2b4035
fc2cdeab
fc2b3478
fc2d9a72
fc29db2b
fc29ce7d
fc2b18ca
fc2cc2ee
fc2a6991
fc2d8ec4
fc2a5de3
fc2db630
fc2b4035
fc2cdeab
fc2b3478
fc2d9a72
fc29db2b
fc29ce7d
fc2b18ca
fc2cc2ee
fc2a6991
fc2d8ec4
fc2a5de3
fc2db630
fc2b4035
fc2cdeab
fc2b3478
fc2d9a72
fc29db2b
fc29ce7d
fc2b18ca
fc2cc2ee
fc2a6991
fc2d8ec4
fc2a5de3
fc2db630
fc2b4035
fc2cdeab
fc2b3478
fc2d9a72
fc29db2b
fc29ce7d
fc2b18ca
fc2cc2ee
fc2a6991
fc2d8ec4
fc2a5de3
fc2db630
fc2b4035
fc2cdeab
fc2b3478
fc2d9a72
fc29db2b
fc29ce7d
fc2b18ca
fc2cc2ee
fc2a6991
fc2d8ec4
fc2a5de3
fc2db630
fc2b4035
fc2cdeab
fc2b3478
fc2d9a72
fc29db2b
fc29ce7d
fc2b18ca
fc2cc2ee
fc2a6991
fc2d8ec4
fc2a5de3
fc2db630
fc2b4035
fc2cdeab
fc2b3478
fc2d9a72
fc29db2b
fc29ce7d
fc2b18ca
fc2cc2ee
fc2a6991
fc2d8ec4
fc2a5de3
fc2db630
fc2b4035
fc2cdeab
fc2b3478
fc2d9a72
fc29db2b
fc29ce7d
fc2b18ca
fc2cc2ee
fc2a6991
fc2d8ec4
fc2a5de3
fc2db630
fc2b4035
fc2cdeab
fc2b3478
fc2d9a72
fc29db2b
fc29ce7d
fc2b18ca
fc2cc2ee
fc2a6991
fc2d8ec4
fc2a5de3
fc2db630
fc2b4035
fc2cdeab
fc2b3478
fc2d9a72
fc29db2b
fc29ce7d
fc2b18ca
fc2cc2ee
fc2a6991
fc2d8ec4
fc2a5de3
fc2db630
fc2b4035
fc2cdeab
fc2b3478
fc2d9a72
fc29db2b
fc29ce7d
fc2b18ca
fc2cc2ee
fc2a6991
fc2d8ec4
fc2a5de3
fc2db630
fc2b4035
fc2cdeab
fc2b3478
fc2d9a72
fc29db2b
fc29ce7d
fc2b18ca
fc2cc2ee
fc2a6991
fc2d8ec4
fc2a5de3
fc2db630
fc2b4035
fc2cdeab
fc2b3478
fc2d9a72
fc29db2b
fc29ce7d
fc2b18ca
fc2cc2ee
fc2a6991
fc2d8ec4
fc2a5de3
fc2db630
fc2b4035
fc2cdeab
fc2b3478
fc2d9a72
fc29db2b
fc29ce7d
fc2b18ca
fc2cc2ee
fc2a6991
fc2d8ec4
fc2a5de3
fc2db630
fc2b4035
fc2cdeab
fc2b3478
fc2d9a72
fc29db2b
fc29ce7d
fc2b18ca
fc2cc2ee
fc2a6991
fc2d8ec4
fc2a5de3
fc2db630
fc2b4035
fc2cdeab
fc2b3478
fc2d9a72
fc29db2b
fc29ce7d
fc2b18ca
fc2cc2ee
fc2a6991
fc2d8ec4
fc2a5de3
fc2db630
fc2b4035
fc2cdeab
fc2b3478
fc2d9a72
fc29db2b
fc29ce7d
fc2b18ca
fc2cc2ee
fc2a6991
fc2d8ec4
fc2a5de3
fc2db630
fc2b4035
fc2cdeab
fc2b3478
fc2d9a72
fc29db2b
fc29ce7d
fc2b18ca
fc2cc2ee
fc2a6991
fc2d8ec4
fc2a5de3
fc2db630
fc2b4035
fc2cdeab
fc2b3478
fc2d9a72
fc29db2b
fc29ce7d
fc2b18ca
fc2cc2ee
fc2a6991
fc2d8ec4
fc2a5de3
fc2db630
fc2b4035
fc2cdeab
fc2b3478
fc2d9a72
fc29db2b
fc29ce7d
fc2b18ca
fc2cc2ee
fc2a6991
fc2d8ec4
fc2a5de3
fc2db630
fc2b4035
fc2cdeab
fc2b3478
fc2d9a72
fc29db2b
fc29ce7d
fc2b18ca
fc2cc2ee
fc2a6991
fc2d8ec4
fc2a5de3
fc2db630
fc2b4035
fc2cdeab
fc2b3478
fc2d9a72
fc29db2b
fc29ce7d
fc2b18ca
fc2cc2ee
fc2a6991
fc2d8ec4
fc2a5de3
fc2db630
fc2b4035
fc2cdeab
fc2b3478
fc2d9a72
fc29db2b
fc29ce7d
fc2b18ca
fc2cc2ee
fc2a6991
fc2d8ec4
fc2a5de3
fc2db630
fc2b4035
fc2cdeab
fc2b3478
fc2d9a72
fc29db2b
fc29ce7d
fc2b18ca
fc2cc2ee
fc2a6991
fc2d8ec4
fc2a5de3
fc2db630
fc2b4035
fc2cdeab
fc2b3478
fc2d9a72
fc29db2b
fc29ce7d
fc2b18ca
fc2cc2ee
fc2a6991
fc2d8ec4
fc2a5de3
fc2db630
fc2b4035
fc2cdeab
fc2b3478
fc2d9a72
fc29db2b
fc29ce7d
fc2b18ca
fc2cc2ee
fc2a6991
fc2d8ec4
fc2a5de3
fc2db630
fc2b4035
fc2cdeab
fc2b3478
fc2d9a72
fc29db2b
fc29ce7d
fc2b18ca
fc2cc2ee
fc2a6991
fc2d8ec4
fc2a5de3
fc2db630
fc2b4035
fc2cdeab
fc2b3478
fc2d9a72
fc29db2b
fc29ce7d
fc2b18ca
fc2cc2ee
fc2a6991
fc2d8ec4
fc2a5de3
fc2db630
fc2b4035
fc2cdeab
fc2b3478
fc2d9a72
fc29db2b
fc29ce7d
fc2b18ca
fc2cc2ee
fc2a6991
fc2d8ec4
fc2a5de3
fc2db630
fc2b4035
fc2cdeab
fc2b3478
fc2d9a72
fc29db2b
fc29ce7d
fc2b18ca
fc2cc2ee
fc2a6991
fc2d8ec4
fc2a5de3
fc2db630
