fc35a94a
fc36547e
fc35b608
fc3738b0
fc350f27
fc35d2b6
fc372b02
fc39910d
fc371f45
fc380397
fc341bd4
fc38e7e9
fc39855f
fc342782
fc32a5da
fc376521
fc3681df
fc343440
fc369d9d
fc36602c
fc39adbb
fc35a94a
fc36547e
fc35b608
fc3738b0
fc350f27
fc35d2b6
fc372b02
fc39910d
fc371f45
fc380397
fc341bd4
fc38e7e9
fc39855f
fc342782
fc32a5da
fc376521
fc3681df
fc343440
fc369d9d
fc36602c
fc39adbb
fc35a94a
fc36547e
fc35b608
fc3738b0
fc350f27
fc35d2b6
fc372b02
fc39910d
fc371f45
fc380397
fc341bd4
fc38e7e9
fc39855f
fc342782
fc32a5da
fc376521
fc3681df
fc343440
fc369d9d
fc36602c
fc39adbb
fc35a94a
fc36547e
fc35b608
fc3738b0
fc350f27
fc35d2b6
fc372b02
fc39910d
fc371f45
fc380397
fc341bd4
fc38e7e9
fc39855f
fc342782
fc32a5da
fc376521
fc3681df
fc343440
fc369d9d
fc36602c
fc39adbb
fc35a94a
fc36547e
fc35b608
fc3738b0
fc350f27
fc35d2b6
fc372b02
fc39910d
fc371f45
fc380397
fc341bd4
fc38e7e9
fc39855f
fc342782
fc32a5da
fc376521
fc3681df
fc343440
fc369d9d
fc36602c
fc39adbb
fc35a94a
fc36547e
fc35b608
fc3738b0
fc350f27
fc35d2b6
fc372b02
fc39910d
fc371f45
fc380397
fc341bd4
fc38e7e9
fc39855f
fc342782
fc32a5da
fc376521
fc3681df
fc343440
fc369d9d
fc36602c
fc39adbb
fc35a94a
fc36547e
fc35b608
fc3738b0
fc350f27
fc35d2b6
fc372b02
fc39910d
fc371f45
fc380397
fc341bd4
fc38e7e9
fc39855f
fc342782
fc32a5da
fc376521
fc3681df
fc343440
fc369d9d
fc36602c
fc39adbb
fc35a94a
fc36547e
fc35b608
fc3738b0
fc350f27
fc35d2b6
fc372b02
fc39910d
fc371f45
fc380397
fc341bd4
fc38e7e9
fc39855f
fc342782
fc32a5da
fc376521
fc3681df
fc343440
fc369d9d
fc36602c
fc39adbb
fc35a94a
fc36547e
fc35b608
fc3738b0
fc350f27
fc35d2b6
fc372b02
fc39910d
fc371f45
fc380397
fc341bd4
fc38e7e9
fc39855f
fc342782
fc32a5da
fc376521
fc3681df
fc343440
fc369d9d
fc36602c
fc39adbb
fc35a94a
fc36547e
fc35b608
fc3738b0
fc350f27
fc35d2b6
fc372b02
fc39910d
fc371f45
fc380397
fc341bd4
fc38e7e9
fc39855f
fc342782
fc32a5da
fc376521
fc3681df
fc343440
fc369d9d
fc36602c
fc39adbb
fc35a94a
fc36547e
fc35b608
fc3738b0
fc350f27
fc35d2b6
fc372b02
fc39910d
fc371f45
fc380397
fc341bd4
fc38e7e9
fc39855f
fc342782
fc32a5da
fc376521
fc3681df
fc343440
fc369d9d
fc36602c
fc39adbb
fc35a94a
fc36547e
fc35b608
fc3738b0
fc350f27
fc35d2b6
fc372b02
fc39910d
fc371f45
fc380397
fc341bd4
fc38e7e9
fc39855f
fc342782
fc32a5da
fc376521
fc3681df
fc343440
fc369d9d
fc36602c
fc39adbb
fc35a94a
fc36547e
fc35b608
fc3738b0
fc350f27
fc35d2b6
fc372b02
fc39910d
fc371f45
fc380397
fc341bd4
fc38e7e9
fc39855f
fc342782
fc32a5da
fc376521
fc3681df
fc343440
fc369d9d
fc36602c
fc39adbb
fc35a94a
fc36547e
fc35b608
fc3738b0
fc350f27
fc35d2b6
fc372b02
fc39910d
fc371f45
fc380397
fc341bd4
fc38e7e9
fc39855f
fc342782
fc32a5da
fc376521
fc3681df
fc343440
fc369d9d
fc36602c
fc39adbb
fc35a94a
fc36547e
fc35b608
fc3738b0
fc350f27
fc35d2b6
fc372b02
fc39910d
fc371f45
fc380397
fc341bd4
fc38e7e9
fc39855f
fc342782
fc32a5da
fc376521
fc3681df
fc343440
fc369d9d
fc36602c
fc39adbb
fc35a94a
fc36547e
fc35b608
fc3738b0
fc350f27
fc35d2b6
fc372b02
fc39910d
fc371f45
fc380397
fc341bd4
fc38e7e9
fc39855f
fc342782
fc32a5da
fc376521
fc3681df
fc343440
fc369d9d
fc36602c
fc39adbb
fc35a94a
fc36547e
fc35b608
fc3738b0
fc350f27
fc35d2b6
fc372b02
fc39910d
fc371f45
fc380397
fc341bd4
fc38e7e9
fc39855f
fc342782
fc32a5da
fc376521
fc3681df
fc343440
fc369d9d
fc36602c
fc39adbb
fc35a94a
fc36547e
fc35b608
fc3738b0
fc350f27
fc35d2b6
fc372b02
fc39910d
fc371f45
fc380397
fc341bd4
fc38e7e9
fc39855f
fc342782
fc32a5da
fc376521
fc3681df
fc343440
fc369d9d
fc36602c
fc39adbb
fc35a94a
fc36547e
fc35b608
fc3738b0
fc350f27
fc35d2b6
fc372b02
fc39910d
fc371f45
fc380397
fc341bd4
fc38e7e9
fc39855f
fc342782
fc32a5da
fc376521
fc3681df
fc343440
fc369d9d
fc36602c
fc39adbb
fc35a94a
fc36547e
fc35b608
fc3738b0
fc350f27
fc35d2b6
fc372b02
fc39910d
fc371f45
fc380397
fc341bd4
fc38e7e9
fc39855f
fc342782
fc32a5da
fc376521
fc3681df
fc343440
fc369d9d
fc36602c
fc39adbb
fc35a94a
fc36547e
fc35b608
fc3738b0
fc350f27
fc35d2b6
fc372b02
fc39910d
fc371f45
fc380397
fc341bd4
fc38e7e9
fc39855f
fc342782
fc32a5da
fc376521
fc3681df
fc343440
fc369d9d
fc36602c
fc39adbb
fc35a94a
fc36547e
fc35b608
fc3738b0
fc350f27
fc35d2b6
fc372b02
fc39910d
fc371f45
fc380397
fc341bd4
fc38e7e9
fc39855f
fc342782
fc32a5da
fc376521
fc3681df
fc343440
fc369d9d
fc36602c
fc39adbb
fc35a94a
fc36547e
fc35b608
fc3738b0
fc350f27
fc35d2b6
fc372b02
fc39910d
fc371f45
fc380397
fc341bd4
fc38e7e9
fc39855f
fc342782
fc32a5da
fc376521
fc3681df
fc343440
fc369d9d
fc36602c
fc39adbb
fc35a94a
fc36547e
fc35b608
fc3738b0
fc350f27
fc35d2b6
fc372b02
fc39910d
fc371f45
fc380397
fc341bd4
fc38e7e9
fc39855f
fc342782
fc32a5da
fc376521
fc3681df
fc343440
fc369d9d
fc36602c
fc39adbb
fc35a94a
fc36547e
fc35b608
fc3738b0
fc350f27
fc35d2b6
fc372b02
fc39910d
fc371f45
fc380397
fc341bd4
fc38e7e9
fc39855f
fc342782
fc32a5da
fc376521
fc3681df
fc343440
fc369d9d
fc36602c
fc39adbb
fc35a94a
fc36547e
fc35b608
fc3738b0
fc350f27
fc35d2b6
fc372b02
fc39910d
fc371f45
fc380397
fc341bd4
fc38e7e9
fc39855f
fc342782
fc32a5da
fc376521
fc3681df
fc343440
fc369d9d
fc36602c
fc39adbb
fc35a94a
fc36547e
fc35b608
fc3738b0
fc350f27
fc35d2b6
fc372b02
fc39910d
fc371f45
fc380397
fc341bd4
fc38e7e9
fc39855f
fc342782
fc32a5da
fc376521
fc3681df
fc343440
fc369d9d
fc36602c
fc39adbb
fc35a94a
fc36547e
fc35b608
fc3738b0
fc350f27
fc35d2b6
fc372b02
fc39910d
fc371f45
fc380397
fc341bd4
fc38e7e9
fc39855f
fc342782
fc32a5da
fc376521
fc3681df
fc343440
fc369d9d
fc36602c
fc39adbb
fc35a94a
fc36547e
fc35b608
fc3738b0
fc350f27
fc35d2b6
fc372b02
fc39910d
fc371f45
fc380397
fc341bd4
fc38e7e9
fc39855f
fc342782
fc32a5da
fc376521
fc3681df
fc343440
fc369d9d
fc36602c
fc39adbb
fc35a94a
fc36547e
fc35b608
fc3738b0
fc350f27
fc35d2b6
fc372b02
fc39910d
fc371f45
fc380397
fc341bd4
fc38e7e9
fc39855f
fc342782
fc32a5da
fc376521
fc3681df
fc343440
fc369d9d
fc36602c
fc39adbb
fc35a94a
fc36547e
fc35b608
fc3738b0
fc350f27
fc35d2b6
fc372b02
fc39910d
fc371f45
fc380397
fc341bd4
fc38e7e9
fc39855f
fc342782
fc32a5da
fc376521
fc3681df
fc343440
fc369d9d
fc36602c
fc39adbb
fc35a94a
fc36547e
fc35b608
fc3738b0
fc350f27
fc35d2b6
fc372b02
fc39910d
fc371f45
fc380397
fc341bd4
fc38e7e9
fc39855f
fc342782
fc32a5da
fc376521
fc3681df
fc343440
fc369d9d
fc36602c
fc39adbb
fc35a94a
fc36547e
fc35b608
fc3738b0
fc350f27
fc35d2b6
fc372b02
fc39910d
fc371f45
fc380397
fc341bd4
fc38e7e9
fc39855f
fc342782
fc32a5da
fc376521
fc3681df
fc343440
fc369d9d
fc36602c
fc39adbb
fc35a94a
fc36547e
fc35b608
fc3738b0
fc350f27
fc35d2b6
fc372b02
fc39910d
fc371f45
fc380397
fc341bd4
fc38e7e9
fc39855f
fc342782
fc32a5da
fc376521
fc3681df
fc343440
fc369d9d
fc36602c
fc39adbb
fc35a94a
fc36547e
fc35b608
fc3738b0
fc350f27
fc35d2b6
fc372b02
fc39910d
fc371f45
fc380397
fc341bd4
fc38e7e9
fc39855f
fc342782
fc32a5da
fc376521
fc3681df
fc343440
fc369d9d
fc36602c
fc39adbb
fc35a94a
fc36547e
fc35b608
fc3738b0
fc350f27
fc35d2b6
fc372b02
fc39910d
fc371f45
fc380397
fc341bd4
fc38e7e9
fc39855f
fc342782
fc32a5da
fc376521
fc3681df
fc343440
fc369d9d
fc36602c
fc39adbb
fc35a94a
fc36547e
fc35b608
fc3738b0
fc350f27
fc35d2b6
fc372b02
fc39910d
fc371f45
fc380397
fc341bd4
fc38e7e9
fc39855f
fc342782
fc32a5da
fc376521
fc3681df
fc343440
fc369d9d
fc36602c
fc39adbb
fc35a94a
fc36547e
fc35b608
fc3738b0
fc350f27
fc35d2b6
fc372b02
fc39910d
fc371f45
fc380397
fc341bd4
fc38e7e9
fc39855f
fc342782
fc32a5da
fc376521
fc3681df
fc343440
fc369d9d
fc36602c
fc39adbb
fc35a94a
fc36547e
fc35b608
fc3738b0
fc350f27
fc35d2b6
fc372b02
fc39910d
fc371f45
fc380397
fc341bd4
fc38e7e9
fc39855f
fc342782
fc32a5da
fc376521
fc3681df
fc343440
fc369d9d
fc36602c
fc39adbb
fc35a94a
fc36547e
fc35b608
fc3738b0
fc350f27
fc35d2b6
fc372b02
fc39910d
fc371f45
fc380397
fc341bd4
fc38e7e9
fc39855f
fc342782
fc32a5da
fc376521
fc3681df
fc343440
fc369d9d
fc36602c
fc39adbb
