fc40683b
fc41a1d5
fc402f1d
fc42b288
fc4350fe
fc4f80a7
fc4ef231
fc44ee64
fc41f6a1
fc41bd83
fc436cbc
fc44fa22
fc4306df
fc4f3bdb
fc42de46
fc405c8e
fc43238d
fc41c941
fc42786a
fc433f4b
fc4f74f9
fc40026f
fc424bf9
fc4ead55
fc4267b7
fc428417
fc41eaf4
fc457cda
fc4d0eef
fc40683b
fc41a1d5
fc402f1d
fc42b288
fc4350fe
fc4f80a7
fc4ef231
fc44ee64
fc41f6a1
fc41bd83
fc436cbc
fc44fa22
fc4306df
fc4f3bdb
fc42de46
fc405c8e
fc43238d
fc41c941
fc42786a
fc433f4b
fc4f74f9
fc40026f
fc424bf9
fc4ead55
fc4267b7
fc428417
fc41eaf4
fc457cda
fc4d0eef
fc40683b
fc41a1d5
fc402f1d
fc42b288
fc4350fe
fc4f80a7
fc4ef231
fc44ee64
fc41f6a1
fc41bd83
fc436cbc
fc44fa22
fc4306df
fc4f3bdb
fc42de46
fc405c8e
fc43238d
fc41c941
fc42786a
fc433f4b
fc4f74f9
fc40026f
fc424bf9
fc4ead55
fc4267b7
fc428417
fc41eaf4
fc457cda
fc4d0eef
fc40683b
fc41a1d5
fc402f1d
fc42b288
fc4350fe
fc4f80a7
fc4ef231
fc44ee64
fc41f6a1
fc41bd83
fc436cbc
fc44fa22
fc4306df
fc4f3bdb
fc42de46
fc405c8e
fc43238d
fc41c941
fc42786a
fc433f4b
fc4f74f9
fc40026f
fc424bf9
fc4ead55
fc4267b7
fc428417
fc41eaf4
fc457cda
fc4d0eef
fc40683b
fc41a1d5
fc402f1d
fc42b288
fc4350fe
fc4f80a7
fc4ef231
fc44ee64
fc41f6a1
fc41bd83
fc436cbc
fc44fa22
fc4306df
fc4f3bdb
fc42de46
fc405c8e
fc43238d
fc41c941
fc42786a
fc433f4b
fc4f74f9
fc40026f
fc424bf9
fc4ead55
fc4267b7
fc428417
fc41eaf4
fc457cda
fc4d0eef
fc40683b
fc41a1d5
fc402f1d
fc42b288
fc4350fe
fc4f80a7
fc4ef231
fc44ee64
fc41f6a1
fc41bd83
fc436cbc
fc44fa22
fc4306df
fc4f3bdb
fc42de46
fc405c8e
fc43238d
fc41c941
fc42786a
fc433f4b
fc4f74f9
fc40026f
fc424bf9
fc4ead55
fc4267b7
fc428417
fc41eaf4
fc457cda
fc4d0eef
fc40683b
fc41a1d5
fc402f1d
fc42b288
fc4350fe
fc4f80a7
fc4ef231
fc44ee64
fc41f6a1
fc41bd83
fc436cbc
fc44fa22
fc4306df
fc4f3bdb
fc42de46
fc405c8e
fc43238d
fc41c941
fc42786a
fc433f4b
fc4f74f9
fc40026f
fc424bf9
fc4ead55
fc4267b7
fc428417
fc41eaf4
fc457cda
fc4d0eef
fc40683b
fc41a1d5
fc402f1d
fc42b288
fc4350fe
fc4f80a7
fc4ef231
fc44ee64
fc41f6a1
fc41bd83
fc436cbc
fc44fa22
fc4306df
fc4f3bdb
fc42de46
fc405c8e
fc43238d
fc41c941
fc42786a
fc433f4b
fc4f74f9
fc40026f
fc424bf9
fc4ead55
fc4267b7
fc428417
fc41eaf4
fc457cda
fc4d0eef
fc40683b
fc41a1d5
fc402f1d
fc42b288
fc4350fe
fc4f80a7
fc4ef231
fc44ee64
fc41f6a1
fc41bd83
fc436cbc
fc44fa22
fc4306df
fc4f3bdb
fc42de46
fc405c8e
fc43238d
fc41c941
fc42786a
fc433f4b
fc4f74f9
fc40026f
fc424bf9
fc4ead55
fc4267b7
fc428417
fc41eaf4
fc457cda
fc4d0eef
fc40683b
fc41a1d5
fc402f1d
fc42b288
fc4350fe
fc4f80a7
fc4ef231
fc44ee64
fc41f6a1
fc41bd83
fc436cbc
fc44fa22
fc4306df
fc4f3bdb
fc42de46
fc405c8e
fc43238d
fc41c941
fc42786a
fc433f4b
fc4f74f9
fc40026f
fc424bf9
fc4ead55
fc4267b7
fc428417
fc41eaf4
fc457cda
fc4d0eef
fc40683b
fc41a1d5
fc402f1d
fc42b288
fc4350fe
fc4f80a7
fc4ef231
fc44ee64
fc41f6a1
fc41bd83
fc436cbc
fc44fa22
fc4306df
fc4f3bdb
fc42de46
fc405c8e
fc43238d
fc41c941
fc42786a
fc433f4b
fc4f74f9
fc40026f
fc424bf9
fc4ead55
fc4267b7
fc428417
fc41eaf4
fc457cda
fc4d0eef
fc40683b
fc41a1d5
fc402f1d
fc42b288
fc4350fe
fc4f80a7
fc4ef231
fc44ee64
fc41f6a1
fc41bd83
fc436cbc
fc44fa22
fc4306df
fc4f3bdb
fc42de46
fc405c8e
fc43238d
fc41c941
fc42786a
fc433f4b
fc4f74f9
fc40026f
fc424bf9
fc4ead55
fc4267b7
fc428417
fc41eaf4
fc457cda
fc4d0eef
fc40683b
fc41a1d5
fc402f1d
fc42b288
fc4350fe
fc4f80a7
fc4ef231
fc44ee64
fc41f6a1
fc41bd83
fc436cbc
fc44fa22
fc4306df
fc4f3bdb
fc42de46
fc405c8e
fc43238d
fc41c941
fc42786a
fc433f4b
fc4f74f9
fc40026f
fc424bf9
fc4ead55
fc4267b7
fc428417
fc41eaf4
fc457cda
fc4d0eef
fc40683b
fc41a1d5
fc402f1d
fc42b288
fc4350fe
fc4f80a7
fc4ef231
fc44ee64
fc41f6a1
fc41bd83
fc436cbc
fc44fa22
fc4306df
fc4f3bdb
fc42de46
fc405c8e
fc43238d
fc41c941
fc42786a
fc433f4b
fc4f74f9
fc40026f
fc424bf9
fc4ead55
fc4267b7
fc428417
fc41eaf4
fc457cda
fc4d0eef
fc40683b
fc41a1d5
fc402f1d
fc42b288
fc4350fe
fc4f80a7
fc4ef231
fc44ee64
fc41f6a1
fc41bd83
fc436cbc
fc44fa22
fc4306df
fc4f3bdb
fc42de46
fc405c8e
fc43238d
fc41c941
fc42786a
fc433f4b
fc4f74f9
fc40026f
fc424bf9
fc4ead55
fc4267b7
fc428417
fc41eaf4
fc457cda
fc4d0eef
fc40683b
fc41a1d5
fc402f1d
fc42b288
fc4350fe
fc4f80a7
fc4ef231
fc44ee64
fc41f6a1
fc41bd83
fc436cbc
fc44fa22
fc4306df
fc4f3bdb
fc42de46
fc405c8e
fc43238d
fc41c941
fc42786a
fc433f4b
fc4f74f9
fc40026f
fc424bf9
fc4ead55
fc4267b7
fc428417
fc41eaf4
fc457cda
fc4d0eef
fc40683b
fc41a1d5
fc402f1d
fc42b288
fc4350fe
fc4f80a7
fc4ef231
fc44ee64
fc41f6a1
fc41bd83
fc436cbc
fc44fa22
fc4306df
fc4f3bdb
fc42de46
fc405c8e
fc43238d
fc41c941
fc42786a
fc433f4b
fc4f74f9
fc40026f
fc424bf9
fc4ead55
fc4267b7
fc428417
fc41eaf4
fc457cda
fc4d0eef
fc40683b
fc41a1d5
fc402f1d
fc42b288
fc4350fe
fc4f80a7
fc4ef231
fc44ee64
fc41f6a1
fc41bd83
fc436cbc
fc44fa22
fc4306df
fc4f3bdb
fc42de46
fc405c8e
fc43238d
fc41c941
fc42786a
fc433f4b
fc4f74f9
fc40026f
fc424bf9
fc4ead55
fc4267b7
fc428417
fc41eaf4
fc457cda
fc4d0eef
fc40683b
fc41a1d5
fc402f1d
fc42b288
fc4350fe
fc4f80a7
fc4ef231
fc44ee64
fc41f6a1
fc41bd83
fc436cbc
fc44fa22
fc4306df
fc4f3bdb
fc42de46
fc405c8e
fc43238d
fc41c941
fc42786a
fc433f4b
fc4f74f9
fc40026f
fc424bf9
fc4ead55
fc4267b7
fc428417
fc41eaf4
fc457cda
fc4d0eef
fc40683b
fc41a1d5
fc402f1d
fc42b288
fc4350fe
fc4f80a7
fc4ef231
fc44ee64
fc41f6a1
fc41bd83
fc436cbc
fc44fa22
fc4306df
fc4f3bdb
fc42de46
fc405c8e
fc43238d
fc41c941
fc42786a
fc433f4b
fc4f74f9
fc40026f
fc424bf9
fc4ead55
fc4267b7
fc428417
fc41eaf4
fc457cda
fc4d0eef
fc40683b
fc41a1d5
fc402f1d
fc42b288
fc4350fe
fc4f80a7
fc4ef231
fc44ee64
fc41f6a1
fc41bd83
fc436cbc
fc44fa22
fc4306df
fc4f3bdb
fc42de46
fc405c8e
fc43238d
fc41c941
fc42786a
fc433f4b
fc4f74f9
fc40026f
fc424bf9
fc4ead55
fc4267b7
fc428417
fc41eaf4
fc457cda
fc4d0eef
fc40683b
fc41a1d5
fc402f1d
fc42b288
fc4350fe
fc4f80a7
fc4ef231
fc44ee64
fc41f6a1
fc41bd83
fc436cbc
fc44fa22
fc4306df
fc4f3bdb
fc42de46
fc405c8e
fc43238d
fc41c941
fc42786a
fc433f4b
fc4f74f9
fc40026f
fc424bf9
fc4ead55
fc4267b7
fc428417
fc41eaf4
fc457cda
fc4d0eef
fc40683b
fc41a1d5
fc402f1d
fc42b288
fc4350fe
fc4f80a7
fc4ef231
fc44ee64
fc41f6a1
fc41bd83
fc436cbc
fc44fa22
fc4306df
fc4f3bdb
fc42de46
fc405c8e
fc43238d
fc41c941
fc42786a
fc433f4b
fc4f74f9
fc40026f
fc424bf9
fc4ead55
fc4267b7
fc428417
fc41eaf4
fc457cda
fc4d0eef
fc40683b
fc41a1d5
fc402f1d
fc42b288
fc4350fe
fc4f80a7
fc4ef231
fc44ee64
fc41f6a1
fc41bd83
fc436cbc
fc44fa22
fc4306df
fc4f3bdb
fc42de46
fc405c8e
fc43238d
fc41c941
fc42786a
fc433f4b
fc4f74f9
fc40026f
fc424bf9
fc4ead55
fc4267b7
fc428417
fc41eaf4
fc457cda
fc4d0eef
fc40683b
fc41a1d5
fc402f1d
fc42b288
fc4350fe
fc4f80a7
fc4ef231
fc44ee64
fc41f6a1
fc41bd83
fc436cbc
fc44fa22
fc4306df
fc4f3bdb
fc42de46
fc405c8e
fc43238d
fc41c941
fc42786a
fc433f4b
fc4f74f9
fc40026f
fc424bf9
fc4ead55
fc4267b7
fc428417
fc41eaf4
fc457cda
fc4d0eef
fc40683b
fc41a1d5
fc402f1d
fc42b288
fc4350fe
fc4f80a7
fc4ef231
fc44ee64
fc41f6a1
fc41bd83
fc436cbc
fc44fa22
fc4306df
fc4f3bdb
fc42de46
fc405c8e
fc43238d
fc41c941
fc42786a
fc433f4b
fc4f74f9
fc40026f
fc424bf9
fc4ead55
fc4267b7
fc428417
fc41eaf4
fc457cda
fc4d0eef
fc40683b
fc41a1d5
fc402f1d
fc42b288
fc4350fe
fc4f80a7
fc4ef231
fc44ee64
fc41f6a1
fc41bd83
fc436cbc
fc44fa22
fc4306df
fc4f3bdb
fc42de46
fc405c8e
fc43238d
fc41c941
fc42786a
fc433f4b
fc4f74f9
fc40026f
fc424bf9
fc4ead55
fc4267b7
fc428417
fc41eaf4
fc457cda
fc4d0eef
fc40683b
fc41a1d5
fc402f1d
fc42b288
fc4350fe
fc4f80a7
fc4ef231
fc44ee64
fc41f6a1
fc41bd83
fc436cbc
fc44fa22
fc4306df
fc4f3bdb
fc42de46
fc405c8e
fc43238d
fc41c941
fc42786a
fc433f4b
fc4f74f9
fc40026f
fc424bf9
fc4ead55
fc4267b7
fc428417
fc41eaf4
fc457cda
fc4d0eef
fc40683b
fc41a1d5
fc402f1d
fc42b288
fc4350fe
fc4f80a7
fc4ef231
fc44ee64
fc41f6a1
fc41bd83
fc436cbc
fc44fa22
fc4306df
fc4f3bdb
fc42de46
fc405c8e
fc43238d
fc41c941
fc42786a
fc433f4b
fc4f74f9
fc40026f
fc424bf9
fc4ead55
fc4267b7
fc428417
fc41eaf4
fc457cda
fc4d0eef
fc40683b
fc41a1d5
fc402f1d
fc42b288
fc4350fe
fc4f80a7
fc4ef231
fc44ee64
fc41f6a1
fc41bd83
fc436cbc
fc44fa22
fc4306df
fc4f3bdb
fc42de46
fc405c8e
fc43238d
fc41c941
fc42786a
fc433f4b
fc4f74f9
fc40026f
fc424bf9
fc4ead55
fc4267b7
fc428417
fc41eaf4
fc457cda
fc4d0eef
fc40683b
fc41a1d5
fc402f1d
fc42b288
fc4350fe
fc4f80a7
fc4ef231
fc44ee64
fc41f6a1
fc41bd83
fc436cbc
fc44fa22
fc4306df
fc4f3bdb
fc42de46
fc405c8e
fc43238d
fc41c941
fc42786a
fc433f4b
fc4f74f9
fc40026f
fc424bf9
fc4ead55
fc4267b7
fc428417
fc41eaf4
fc457cda
fc4d0eef
fc40683b
fc41a1d5
fc402f1d
fc42b288
fc4350fe
fc4f80a7
fc4ef231
fc44ee64
fc41f6a1
fc41bd83
fc436cbc
fc44fa22
fc4306df
fc4f3bdb
fc42de46
fc405c8e
fc43238d
fc41c941
fc42786a
fc433f4b
fc4f74f9
fc40026f
fc424bf9
fc4ead55
fc4267b7
fc428417
fc41eaf4
fc457cda
fc4d0eef
fc40683b
fc41a1d5
fc402f1d
fc42b288
fc4350fe
fc4f80a7
fc4ef231
fc44ee64
fc41f6a1
fc41bd83
fc436cbc
fc44fa22
fc4306df
fc4f3bdb
fc42de46
fc405c8e
fc43238d
fc41c941
fc42786a
fc433f4b
fc4f74f9
fc40026f
fc424bf9
fc4ead55
fc4267b7
fc428417
fc41eaf4
fc457cda
fc4d0eef
fc40683b
fc41a1d5
fc402f1d
fc42b288
fc4350fe
fc4f80a7
fc4ef231
fc44ee64
fc41f6a1
fc41bd83
fc436cbc
fc44fa22
fc4306df
fc4f3bdb
fc42de46
fc405c8e
fc43238d
fc41c941
fc42786a
fc433f4b
fc4f74f9
fc40026f
fc424bf9
fc4ead55
fc4267b7
fc428417
fc41eaf4
fc457cda
fc4d0eef
fc40683b
fc41a1d5
fc402f1d
fc42b288
fc4350fe
fc4f80a7
fc4ef231
fc44ee64
fc41f6a1
fc41bd83
fc436cbc
fc44fa22
fc4306df
fc4f3bdb
fc42de46
fc405c8e
fc43238d
fc41c941
fc42786a
fc433f4b
fc4f74f9
fc40026f
fc424bf9
fc4ead55
fc4267b7
fc428417
fc41eaf4
fc457cda
fc4d0eef
fc40683b
fc41a1d5
fc402f1d
fc42b288
fc4350fe
fc4f80a7
fc4ef231
fc44ee64
fc41f6a1
fc41bd83
fc436cbc
fc44fa22
fc4306df
fc4f3bdb
fc42de46
fc405c8e
fc43238d
fc41c941
fc42786a
fc433f4b
fc4f74f9
fc40026f
fc424bf9
fc4ead55
fc4267b7
fc428417
fc41eaf4
fc457cda
fc4d0eef
fc40683b
fc41a1d5
fc402f1d
fc42b288
fc4350fe
fc4f80a7
fc4ef231
fc44ee64
fc41f6a1
fc41bd83
fc436cbc
fc44fa22
fc4306df
fc4f3bdb
fc42de46
fc405c8e
fc43238d
fc41c941
fc42786a
fc433f4b
fc4f74f9
fc40026f
fc424bf9
fc4ead55
fc4267b7
fc428417
fc41eaf4
fc457cda
fc4d0eef
fc40683b
fc41a1d5
fc402f1d
fc42b288
fc4350fe
fc4f80a7
fc4ef231
fc44ee64
fc41f6a1
fc41bd83
fc436cbc
fc44fa22
fc4306df
fc4f3bdb
fc42de46
fc405c8e
fc43238d
fc41c941
fc42786a
fc433f4b
fc4f74f9
fc40026f
fc424bf9
fc4ead55
fc4267b7
fc428417
fc41eaf4
fc457cda
fc4d0eef
fc40683b
fc41a1d5
fc402f1d
fc42b288
fc4350fe
fc4f80a7
fc4ef231
fc44ee64
fc41f6a1
fc41bd83
fc436cbc
fc44fa22
fc4306df
fc4f3bdb
fc42de46
fc405c8e
fc43238d
fc41c941
fc42786a
fc433f4b
fc4f74f9
fc40026f
fc424bf9
fc4ead55
fc4267b7
fc428417
fc41eaf4
fc457cda
fc4d0eef
fc40683b
fc41a1d5
fc402f1d
fc42b288
fc4350fe
fc4f80a7
fc4ef231
fc44ee64
fc41f6a1
fc41bd83
fc436cbc
fc44fa22
fc4306df
fc4f3bdb
fc42de46
fc405c8e
fc43238d
fc41c941
fc42786a
fc433f4b
fc4f74f9
fc40026f
fc424bf9
fc4ead55
fc4267b7
fc428417
fc41eaf4
fc457cda
fc4d0eef
