fc5c16a8
fc50f1ad
fc5b99e5
fc5e8ca2
fc5c4319
fc57e54c
fc5b8832
fc5c8c37
fc5dc0cc
fc5f5337
fc5eb913
fc5f0e6a
fc5c375b
fc5dd18e
fc59067a
fc5d9850
fc5c0aea
fc5b7b74
fc5f1a18
fc5af9cc
fc5b2256
fc5933ea
fc594f98
fc5add0e
fc5d2bad
fc5e7ff4
fc595b56
fc586704
fc5884b2
fc5e36d6
fc5c5fc6
fc5ac150
fc50d5ff
fc5ec5c1
fc5da41e
fc5f4789
fc5a94e0
fc5bb5a3
fc5dfd3c
fc57d99e
fc5c16a8
fc50f1ad
fc5b99e5
fc5e8ca2
fc5c4319
fc57e54c
fc5b8832
fc5c8c37
fc5dc0cc
fc5f5337
fc5eb913
fc5f0e6a
fc5c375b
fc5dd18e
fc59067a
fc5d9850
fc5c0aea
fc5b7b74
fc5f1a18
fc5af9cc
fc5b2256
fc5933ea
fc594f98
fc5add0e
fc5d2bad
fc5e7ff4
fc595b56
fc586704
fc5884b2
fc5e36d6
fc5c5fc6
fc5ac150
fc50d5ff
fc5ec5c1
fc5da41e
fc5f4789
fc5a94e0
fc5bb5a3
fc5dfd3c
fc57d99e
fc5c16a8
fc50f1ad
fc5b99e5
fc5e8ca2
fc5c4319
fc57e54c
fc5b8832
fc5c8c37
fc5dc0cc
fc5f5337
fc5eb913
fc5f0e6a
fc5c375b
fc5dd18e
fc59067a
fc5d9850
fc5c0aea
fc5b7b74
fc5f1a18
fc5af9cc
fc5b2256
fc5933ea
fc594f98
fc5add0e
fc5d2bad
fc5e7ff4
fc595b56
fc586704
fc5884b2
fc5e36d6
fc5c5fc6
fc5ac150
fc50d5ff
fc5ec5c1
fc5da41e
fc5f4789
fc5a94e0
fc5bb5a3
fc5dfd3c
fc57d99e
fc5c16a8
fc50f1ad
fc5b99e5
fc5e8ca2
fc5c4319
fc57e54c
fc5b8832
fc5c8c37
fc5dc0cc
fc5f5337
fc5eb913
fc5f0e6a
fc5c375b
fc5dd18e
fc59067a
fc5d9850
fc5c0aea
fc5b7b74
fc5f1a18
fc5af9cc
fc5b2256
fc5933ea
fc594f98
fc5add0e
fc5d2bad
fc5e7ff4
fc595b56
fc586704
fc5884b2
fc5e36d6
fc5c5fc6
fc5ac150
fc50d5ff
fc5ec5c1
fc5da41e
fc5f4789
fc5a94e0
fc5bb5a3
fc5dfd3c
fc57d99e
fc5c16a8
fc50f1ad
fc5b99e5
fc5e8ca2
fc5c4319
fc57e54c
fc5b8832
fc5c8c37
fc5dc0cc
fc5f5337
fc5eb913
fc5f0e6a
fc5c375b
fc5dd18e
fc59067a
fc5d9850
fc5c0aea
fc5b7b74
fc5f1a18
fc5af9cc
fc5b2256
fc5933ea
fc594f98
fc5add0e
fc5d2bad
fc5e7ff4
fc595b56
fc586704
fc5884b2
fc5e36d6
fc5c5fc6
fc5ac150
fc50d5ff
fc5ec5c1
fc5da41e
fc5f4789
fc5a94e0
fc5bb5a3
fc5dfd3c
fc57d99e
fc5c16a8
fc50f1ad
fc5b99e5
fc5e8ca2
fc5c4319
fc57e54c
fc5b8832
fc5c8c37
fc5dc0cc
fc5f5337
fc5eb913
fc5f0e6a
fc5c375b
fc5dd18e
fc59067a
fc5d9850
fc5c0aea
fc5b7b74
fc5f1a18
fc5af9cc
fc5b2256
fc5933ea
fc594f98
fc5add0e
fc5d2bad
fc5e7ff4
fc595b56
fc586704
fc5884b2
fc5e36d6
fc5c5fc6
fc5ac150
fc50d5ff
fc5ec5c1
fc5da41e
fc5f4789
fc5a94e0
fc5bb5a3
fc5dfd3c
fc57d99e
fc5c16a8
fc50f1ad
fc5b99e5
fc5e8ca2
fc5c4319
fc57e54c
fc5b8832
fc5c8c37
fc5dc0cc
fc5f5337
fc5eb913
fc5f0e6a
fc5c375b
fc5dd18e
fc59067a
fc5d9850
fc5c0aea
fc5b7b74
fc5f1a18
fc5af9cc
fc5b2256
fc5933ea
fc594f98
fc5add0e
fc5d2bad
fc5e7ff4
fc595b56
fc586704
fc5884b2
fc5e36d6
fc5c5fc6
fc5ac150
fc50d5ff
fc5ec5c1
fc5da41e
fc5f4789
fc5a94e0
fc5bb5a3
fc5dfd3c
fc57d99e
fc5c16a8
fc50f1ad
fc5b99e5
fc5e8ca2
fc5c4319
fc57e54c
fc5b8832
fc5c8c37
fc5dc0cc
fc5f5337
fc5eb913
fc5f0e6a
fc5c375b
fc5dd18e
fc59067a
fc5d9850
fc5c0aea
fc5b7b74
fc5f1a18
fc5af9cc
fc5b2256
fc5933ea
fc594f98
fc5add0e
fc5d2bad
fc5e7ff4
fc595b56
fc586704
fc5884b2
fc5e36d6
fc5c5fc6
fc5ac150
fc50d5ff
fc5ec5c1
fc5da41e
fc5f4789
fc5a94e0
fc5bb5a3
fc5dfd3c
fc57d99e
fc5c16a8
fc50f1ad
fc5b99e5
fc5e8ca2
fc5c4319
fc57e54c
fc5b8832
fc5c8c37
fc5dc0cc
fc5f5337
fc5eb913
fc5f0e6a
fc5c375b
fc5dd18e
fc59067a
fc5d9850
fc5c0aea
fc5b7b74
fc5f1a18
fc5af9cc
fc5b2256
fc5933ea
fc594f98
fc5add0e
fc5d2bad
fc5e7ff4
fc595b56
fc586704
fc5884b2
fc5e36d6
fc5c5fc6
fc5ac150
fc50d5ff
fc5ec5c1
fc5da41e
fc5f4789
fc5a94e0
fc5bb5a3
fc5dfd3c
fc57d99e
fc5c16a8
fc50f1ad
fc5b99e5
fc5e8ca2
fc5c4319
fc57e54c
fc5b8832
fc5c8c37
fc5dc0cc
fc5f5337
fc5eb913
fc5f0e6a
fc5c375b
fc5dd18e
fc59067a
fc5d9850
fc5c0aea
fc5b7b74
fc5f1a18
fc5af9cc
fc5b2256
fc5933ea
fc594f98
fc5add0e
fc5d2bad
fc5e7ff4
fc595b56
fc586704
fc5884b2
fc5e36d6
fc5c5fc6
fc5ac150
fc50d5ff
fc5ec5c1
fc5da41e
fc5f4789
fc5a94e0
fc5bb5a3
fc5dfd3c
fc57d99e
fc5c16a8
fc50f1ad
fc5b99e5
fc5e8ca2
fc5c4319
fc57e54c
fc5b8832
fc5c8c37
fc5dc0cc
fc5f5337
fc5eb913
fc5f0e6a
fc5c375b
fc5dd18e
fc59067a
fc5d9850
fc5c0aea
fc5b7b74
fc5f1a18
fc5af9cc
fc5b2256
fc5933ea
fc594f98
fc5add0e
fc5d2bad
fc5e7ff4
fc595b56
fc586704
fc5884b2
fc5e36d6
fc5c5fc6
fc5ac150
fc50d5ff
fc5ec5c1
fc5da41e
fc5f4789
fc5a94e0
fc5bb5a3
fc5dfd3c
fc57d99e
fc5c16a8
fc50f1ad
fc5b99e5
fc5e8ca2
fc5c4319
fc57e54c
fc5b8832
fc5c8c37
fc5dc0cc
fc5f5337
fc5eb913
fc5f0e6a
fc5c375b
fc5dd18e
fc59067a
fc5d9850
fc5c0aea
fc5b7b74
fc5f1a18
fc5af9cc
fc5b2256
fc5933ea
fc594f98
fc5add0e
fc5d2bad
fc5e7ff4
fc595b56
fc586704
fc5884b2
fc5e36d6
fc5c5fc6
fc5ac150
fc50d5ff
fc5ec5c1
fc5da41e
fc5f4789
fc5a94e0
fc5bb5a3
fc5dfd3c
fc57d99e
fc5c16a8
fc50f1ad
fc5b99e5
fc5e8ca2
fc5c4319
fc57e54c
fc5b8832
fc5c8c37
fc5dc0cc
fc5f5337
fc5eb913
fc5f0e6a
fc5c375b
fc5dd18e
fc59067a
fc5d9850
fc5c0aea
fc5b7b74
fc5f1a18
fc5af9cc
fc5b2256
fc5933ea
fc594f98
fc5add0e
fc5d2bad
fc5e7ff4
fc595b56
fc586704
fc5884b2
fc5e36d6
fc5c5fc6
fc5ac150
fc50d5ff
fc5ec5c1
fc5da41e
fc5f4789
fc5a94e0
fc5bb5a3
fc5dfd3c
fc57d99e
fc5c16a8
fc50f1ad
fc5b99e5
fc5e8ca2
fc5c4319
fc57e54c
fc5b8832
fc5c8c37
fc5dc0cc
fc5f5337
fc5eb913
fc5f0e6a
fc5c375b
fc5dd18e
fc59067a
fc5d9850
fc5c0aea
fc5b7b74
fc5f1a18
fc5af9cc
fc5b2256
fc5933ea
fc594f98
fc5add0e
fc5d2bad
fc5e7ff4
fc595b56
fc586704
fc5884b2
fc5e36d6
fc5c5fc6
fc5ac150
fc50d5ff
fc5ec5c1
fc5da41e
fc5f4789
fc5a94e0
fc5bb5a3
fc5dfd3c
fc57d99e
fc5c16a8
fc50f1ad
fc5b99e5
fc5e8ca2
fc5c4319
fc57e54c
fc5b8832
fc5c8c37
fc5dc0cc
fc5f5337
fc5eb913
fc5f0e6a
fc5c375b
fc5dd18e
fc59067a
fc5d9850
fc5c0aea
fc5b7b74
fc5f1a18
fc5af9cc
fc5b2256
fc5933ea
fc594f98
fc5add0e
fc5d2bad
fc5e7ff4
fc595b56
fc586704
fc5884b2
fc5e36d6
fc5c5fc6
fc5ac150
fc50d5ff
fc5ec5c1
fc5da41e
fc5f4789
fc5a94e0
fc5bb5a3
fc5dfd3c
fc57d99e
fc5c16a8
fc50f1ad
fc5b99e5
fc5e8ca2
fc5c4319
fc57e54c
fc5b8832
fc5c8c37
fc5dc0cc
fc5f5337
fc5eb913
fc5f0e6a
fc5c375b
fc5dd18e
fc59067a
fc5d9850
fc5c0aea
fc5b7b74
fc5f1a18
fc5af9cc
fc5b2256
fc5933ea
fc594f98
fc5add0e
fc5d2bad
fc5e7ff4
fc595b56
fc586704
fc5884b2
fc5e36d6
fc5c5fc6
fc5ac150
fc50d5ff
fc5ec5c1
fc5da41e
fc5f4789
fc5a94e0
fc5bb5a3
fc5dfd3c
fc57d99e
fc5c16a8
fc50f1ad
fc5b99e5
fc5e8ca2
fc5c4319
fc57e54c
fc5b8832
fc5c8c37
fc5dc0cc
fc5f5337
fc5eb913
fc5f0e6a
fc5c375b
fc5dd18e
fc59067a
fc5d9850
fc5c0aea
fc5b7b74
fc5f1a18
fc5af9cc
fc5b2256
fc5933ea
fc594f98
fc5add0e
fc5d2bad
fc5e7ff4
fc595b56
fc586704
fc5884b2
fc5e36d6
fc5c5fc6
fc5ac150
fc50d5ff
fc5ec5c1
fc5da41e
fc5f4789
fc5a94e0
fc5bb5a3
fc5dfd3c
fc57d99e
fc5c16a8
fc50f1ad
fc5b99e5
fc5e8ca2
fc5c4319
fc57e54c
fc5b8832
fc5c8c37
fc5dc0cc
fc5f5337
fc5eb913
fc5f0e6a
fc5c375b
fc5dd18e
fc59067a
fc5d9850
fc5c0aea
fc5b7b74
fc5f1a18
fc5af9cc
fc5b2256
fc5933ea
fc594f98
fc5add0e
fc5d2bad
fc5e7ff4
fc595b56
fc586704
fc5884b2
fc5e36d6
fc5c5fc6
fc5ac150
fc50d5ff
fc5ec5c1
fc5da41e
fc5f4789
fc5a94e0
fc5bb5a3
fc5dfd3c
fc57d99e
fc5c16a8
fc50f1ad
fc5b99e5
fc5e8ca2
fc5c4319
fc57e54c
fc5b8832
fc5c8c37
fc5dc0cc
fc5f5337
fc5eb913
fc5f0e6a
fc5c375b
fc5dd18e
fc59067a
fc5d9850
fc5c0aea
fc5b7b74
fc5f1a18
fc5af9cc
fc5b2256
fc5933ea
fc594f98
fc5add0e
fc5d2bad
fc5e7ff4
fc595b56
fc586704
fc5884b2
fc5e36d6
fc5c5fc6
fc5ac150
fc50d5ff
fc5ec5c1
fc5da41e
fc5f4789
fc5a94e0
fc5bb5a3
fc5dfd3c
fc57d99e
fc5c16a8
fc50f1ad
fc5b99e5
fc5e8ca2
fc5c4319
fc57e54c
fc5b8832
fc5c8c37
fc5dc0cc
fc5f5337
fc5eb913
fc5f0e6a
fc5c375b
fc5dd18e
fc59067a
fc5d9850
fc5c0aea
fc5b7b74
fc5f1a18
fc5af9cc
fc5b2256
fc5933ea
fc594f98
fc5add0e
fc5d2bad
fc5e7ff4
fc595b56
fc586704
fc5884b2
fc5e36d6
fc5c5fc6
fc5ac150
fc50d5ff
fc5ec5c1
fc5da41e
fc5f4789
fc5a94e0
fc5bb5a3
fc5dfd3c
fc57d99e
fc5c16a8
fc50f1ad
fc5b99e5
fc5e8ca2
fc5c4319
fc57e54c
fc5b8832
fc5c8c37
fc5dc0cc
fc5f5337
fc5eb913
fc5f0e6a
fc5c375b
fc5dd18e
fc59067a
fc5d9850
fc5c0aea
fc5b7b74
fc5f1a18
fc5af9cc
fc5b2256
fc5933ea
fc594f98
fc5add0e
fc5d2bad
fc5e7ff4
fc595b56
fc586704
fc5884b2
fc5e36d6
fc5c5fc6
fc5ac150
fc50d5ff
fc5ec5c1
fc5da41e
fc5f4789
fc5a94e0
fc5bb5a3
fc5dfd3c
fc57d99e
fc5c16a8
fc50f1ad
fc5b99e5
fc5e8ca2
fc5c4319
fc57e54c
fc5b8832
fc5c8c37
fc5dc0cc
fc5f5337
fc5eb913
fc5f0e6a
fc5c375b
fc5dd18e
fc59067a
fc5d9850
fc5c0aea
fc5b7b74
fc5f1a18
fc5af9cc
fc5b2256
fc5933ea
fc594f98
fc5add0e
fc5d2bad
fc5e7ff4
fc595b56
fc586704
fc5884b2
fc5e36d6
fc5c5fc6
fc5ac150
fc50d5ff
fc5ec5c1
fc5da41e
fc5f4789
fc5a94e0
fc5bb5a3
fc5dfd3c
fc57d99e
fc5c16a8
fc50f1ad
fc5b99e5
fc5e8ca2
fc5c4319
fc57e54c
fc5b8832
fc5c8c37
fc5dc0cc
fc5f5337
fc5eb913
fc5f0e6a
fc5c375b
fc5dd18e
fc59067a
fc5d9850
fc5c0aea
fc5b7b74
fc5f1a18
fc5af9cc
fc5b2256
fc5933ea
fc594f98
fc5add0e
fc5d2bad
fc5e7ff4
fc595b56
fc586704
fc5884b2
fc5e36d6
fc5c5fc6
fc5ac150
fc50d5ff
fc5ec5c1
fc5da41e
fc5f4789
fc5a94e0
fc5bb5a3
fc5dfd3c
fc57d99e
fc5c16a8
fc50f1ad
fc5b99e5
fc5e8ca2
fc5c4319
fc57e54c
fc5b8832
fc5c8c37
fc5dc0cc
fc5f5337
fc5eb913
fc5f0e6a
fc5c375b
fc5dd18e
fc59067a
fc5d9850
fc5c0aea
fc5b7b74
fc5f1a18
fc5af9cc
fc5b2256
fc5933ea
fc594f98
fc5add0e
fc5d2bad
fc5e7ff4
fc595b56
fc586704
fc5884b2
fc5e36d6
fc5c5fc6
fc5ac150
fc50d5ff
fc5ec5c1
fc5da41e
fc5f4789
fc5a94e0
fc5bb5a3
fc5dfd3c
fc57d99e
fc5c16a8
fc50f1ad
fc5b99e5
fc5e8ca2
fc5c4319
fc57e54c
fc5b8832
fc5c8c37
fc5dc0cc
fc5f5337
fc5eb913
fc5f0e6a
fc5c375b
fc5dd18e
fc59067a
fc5d9850
fc5c0aea
fc5b7b74
fc5f1a18
fc5af9cc
fc5b2256
fc5933ea
fc594f98
fc5add0e
fc5d2bad
fc5e7ff4
fc595b56
fc586704
fc5884b2
fc5e36d6
fc5c5fc6
fc5ac150
fc50d5ff
fc5ec5c1
fc5da41e
fc5f4789
fc5a94e0
fc5bb5a3
fc5dfd3c
fc57d99e
fc5c16a8
fc50f1ad
fc5b99e5
fc5e8ca2
fc5c4319
fc57e54c
fc5b8832
fc5c8c37
fc5dc0cc
fc5f5337
fc5eb913
fc5f0e6a
fc5c375b
fc5dd18e
fc59067a
fc5d9850
fc5c0aea
fc5b7b74
fc5f1a18
fc5af9cc
fc5b2256
fc5933ea
fc594f98
fc5add0e
fc5d2bad
fc5e7ff4
fc595b56
fc586704
fc5884b2
fc5e36d6
fc5c5fc6
fc5ac150
fc50d5ff
fc5ec5c1
fc5da41e
fc5f4789
fc5a94e0
fc5bb5a3
fc5dfd3c
fc57d99e
fc5c16a8
fc50f1ad
fc5b99e5
fc5e8ca2
fc5c4319
fc57e54c
fc5b8832
fc5c8c37
fc5dc0cc
fc5f5337
fc5eb913
fc5f0e6a
fc5c375b
fc5dd18e
fc59067a
fc5d9850
fc5c0aea
fc5b7b74
fc5f1a18
fc5af9cc
fc5b2256
fc5933ea
fc594f98
fc5add0e
fc5d2bad
fc5e7ff4
fc595b56
fc586704
fc5884b2
fc5e36d6
fc5c5fc6
fc5ac150
fc50d5ff
fc5ec5c1
fc5da41e
fc5f4789
fc5a94e0
fc5bb5a3
fc5dfd3c
fc57d99e
fc5c16a8
fc50f1ad
fc5b99e5
fc5e8ca2
fc5c4319
fc57e54c
fc5b8832
fc5c8c37
fc5dc0cc
fc5f5337
fc5eb913
fc5f0e6a
fc5c375b
fc5dd18e
fc59067a
fc5d9850
fc5c0aea
fc5b7b74
fc5f1a18
fc5af9cc
fc5b2256
fc5933ea
fc594f98
fc5add0e
fc5d2bad
fc5e7ff4
fc595b56
fc586704
fc5884b2
fc5e36d6
fc5c5fc6
fc5ac150
fc50d5ff
fc5ec5c1
fc5da41e
fc5f4789
fc5a94e0
fc5bb5a3
fc5dfd3c
fc57d99e
fc5c16a8
fc50f1ad
fc5b99e5
fc5e8ca2
fc5c4319
fc57e54c
fc5b8832
fc5c8c37
fc5dc0cc
fc5f5337
fc5eb913
fc5f0e6a
fc5c375b
fc5dd18e
fc59067a
fc5d9850
fc5c0aea
fc5b7b74
fc5f1a18
fc5af9cc
fc5b2256
fc5933ea
fc594f98
fc5add0e
fc5d2bad
fc5e7ff4
fc595b56
fc586704
fc5884b2
fc5e36d6
fc5c5fc6
fc5ac150
fc50d5ff
fc5ec5c1
fc5da41e
fc5f4789
fc5a94e0
fc5bb5a3
fc5dfd3c
fc57d99e
fc5c16a8
fc50f1ad
fc5b99e5
fc5e8ca2
fc5c4319
fc57e54c
fc5b8832
fc5c8c37
fc5dc0cc
fc5f5337
fc5eb913
fc5f0e6a
fc5c375b
fc5dd18e
fc59067a
fc5d9850
fc5c0aea
fc5b7b74
fc5f1a18
fc5af9cc
fc5b2256
fc5933ea
fc594f98
fc5add0e
fc5d2bad
fc5e7ff4
fc595b56
fc586704
fc5884b2
fc5e36d6
fc5c5fc6
fc5ac150
fc50d5ff
fc5ec5c1
fc5da41e
fc5f4789
fc5a94e0
fc5bb5a3
fc5dfd3c
fc57d99e
fc5c16a8
fc50f1ad
fc5b99e5
fc5e8ca2
fc5c4319
fc57e54c
fc5b8832
fc5c8c37
fc5dc0cc
fc5f5337
fc5eb913
fc5f0e6a
fc5c375b
fc5dd18e
fc59067a
fc5d9850
fc5c0aea
fc5b7b74
fc5f1a18
fc5af9cc
fc5b2256
fc5933ea
fc594f98
fc5add0e
fc5d2bad
fc5e7ff4
fc595b56
fc586704
fc5884b2
fc5e36d6
fc5c5fc6
fc5ac150
fc50d5ff
fc5ec5c1
fc5da41e
fc5f4789
fc5a94e0
fc5bb5a3
fc5dfd3c
fc57d99e
fc5c16a8
fc50f1ad
fc5b99e5
fc5e8ca2
fc5c4319
fc57e54c
fc5b8832
fc5c8c37
fc5dc0cc
fc5f5337
fc5eb913
fc5f0e6a
fc5c375b
fc5dd18e
fc59067a
fc5d9850
fc5c0aea
fc5b7b74
fc5f1a18
fc5af9cc
fc5b2256
fc5933ea
fc594f98
fc5add0e
fc5d2bad
fc5e7ff4
fc595b56
fc586704
fc5884b2
fc5e36d6
fc5c5fc6
fc5ac150
fc50d5ff
fc5ec5c1
fc5da41e
fc5f4789
fc5a94e0
fc5bb5a3
fc5dfd3c
fc57d99e
fc5c16a8
fc50f1ad
fc5b99e5
fc5e8ca2
fc5c4319
fc57e54c
fc5b8832
fc5c8c37
fc5dc0cc
fc5f5337
fc5eb913
fc5f0e6a
fc5c375b
fc5dd18e
fc59067a
fc5d9850
fc5c0aea
fc5b7b74
fc5f1a18
fc5af9cc
fc5b2256
fc5933ea
fc594f98
fc5add0e
fc5d2bad
fc5e7ff4
fc595b56
fc586704
fc5884b2
fc5e36d6
fc5c5fc6
fc5ac150
fc50d5ff
fc5ec5c1
fc5da41e
fc5f4789
fc5a94e0
fc5bb5a3
fc5dfd3c
fc57d99e
fc5c16a8
fc50f1ad
fc5b99e5
fc5e8ca2
fc5c4319
fc57e54c
fc5b8832
fc5c8c37
fc5dc0cc
fc5f5337
fc5eb913
fc5f0e6a
fc5c375b
fc5dd18e
fc59067a
fc5d9850
fc5c0aea
fc5b7b74
fc5f1a18
fc5af9cc
fc5b2256
fc5933ea
fc594f98
fc5add0e
fc5d2bad
fc5e7ff4
fc595b56
fc586704
fc5884b2
fc5e36d6
fc5c5fc6
fc5ac150
fc50d5ff
fc5ec5c1
fc5da41e
fc5f4789
fc5a94e0
fc5bb5a3
fc5dfd3c
fc57d99e
fc5c16a8
fc50f1ad
fc5b99e5
fc5e8ca2
fc5c4319
fc57e54c
fc5b8832
fc5c8c37
fc5dc0cc
fc5f5337
fc5eb913
fc5f0e6a
fc5c375b
fc5dd18e
fc59067a
fc5d9850
fc5c0aea
fc5b7b74
fc5f1a18
fc5af9cc
fc5b2256
fc5933ea
fc594f98
fc5add0e
fc5d2bad
fc5e7ff4
fc595b56
fc586704
fc5884b2
fc5e36d6
fc5c5fc6
fc5ac150
fc50d5ff
fc5ec5c1
fc5da41e
fc5f4789
fc5a94e0
fc5bb5a3
fc5dfd3c
fc57d99e
fc5c16a8
fc50f1ad
fc5b99e5
fc5e8ca2
fc5c4319
fc57e54c
fc5b8832
fc5c8c37
fc5dc0cc
fc5f5337
fc5eb913
fc5f0e6a
fc5c375b
fc5dd18e
fc59067a
fc5d9850
fc5c0aea
fc5b7b74
fc5f1a18
fc5af9cc
fc5b2256
fc5933ea
fc594f98
fc5add0e
fc5d2bad
fc5e7ff4
fc595b56
fc586704
fc5884b2
fc5e36d6
fc5c5fc6
fc5ac150
fc50d5ff
fc5ec5c1
fc5da41e
fc5f4789
fc5a94e0
fc5bb5a3
fc5dfd3c
fc57d99e
fc5c16a8
fc50f1ad
fc5b99e5
fc5e8ca2
fc5c4319
fc57e54c
fc5b8832
fc5c8c37
fc5dc0cc
fc5f5337
fc5eb913
fc5f0e6a
fc5c375b
fc5dd18e
fc59067a
fc5d9850
fc5c0aea
fc5b7b74
fc5f1a18
fc5af9cc
fc5b2256
fc5933ea
fc594f98
fc5add0e
fc5d2bad
fc5e7ff4
fc595b56
fc586704
fc5884b2
fc5e36d6
fc5c5fc6
fc5ac150
fc50d5ff
fc5ec5c1
fc5da41e
fc5f4789
fc5a94e0
fc5bb5a3
fc5dfd3c
fc57d99e
fc5c16a8
fc50f1ad
fc5b99e5
fc5e8ca2
fc5c4319
fc57e54c
fc5b8832
fc5c8c37
fc5dc0cc
fc5f5337
fc5eb913
fc5f0e6a
fc5c375b
fc5dd18e
fc59067a
fc5d9850
fc5c0aea
fc5b7b74
fc5f1a18
fc5af9cc
fc5b2256
fc5933ea
fc594f98
fc5add0e
fc5d2bad
fc5e7ff4
fc595b56
fc586704
fc5884b2
fc5e36d6
fc5c5fc6
fc5ac150
fc50d5ff
fc5ec5c1
fc5da41e
fc5f4789
fc5a94e0
fc5bb5a3
fc5dfd3c
fc57d99e
fc5c16a8
fc50f1ad
fc5b99e5
fc5e8ca2
fc5c4319
fc57e54c
fc5b8832
fc5c8c37
fc5dc0cc
fc5f5337
fc5eb913
fc5f0e6a
fc5c375b
fc5dd18e
fc59067a
fc5d9850
fc5c0aea
fc5b7b74
fc5f1a18
fc5af9cc
fc5b2256
fc5933ea
fc594f98
fc5add0e
fc5d2bad
fc5e7ff4
fc595b56
fc586704
fc5884b2
fc5e36d6
fc5c5fc6
fc5ac150
fc50d5ff
fc5ec5c1
fc5da41e
fc5f4789
fc5a94e0
fc5bb5a3
fc5dfd3c
fc57d99e
fc5c16a8
fc50f1ad
fc5b99e5
fc5e8ca2
fc5c4319
fc57e54c
fc5b8832
fc5c8c37
fc5dc0cc
fc5f5337
fc5eb913
fc5f0e6a
fc5c375b
fc5dd18e
fc59067a
fc5d9850
fc5c0aea
fc5b7b74
fc5f1a18
fc5af9cc
fc5b2256
fc5933ea
fc594f98
fc5add0e
fc5d2bad
fc5e7ff4
fc595b56
fc586704
fc5884b2
fc5e36d6
fc5c5fc6
fc5ac150
fc50d5ff
fc5ec5c1
fc5da41e
fc5f4789
fc5a94e0
fc5bb5a3
fc5dfd3c
fc57d99e
