fc69d809
fc6ce937
fc6453d1
fc682ee6
fc6b4e14
fc681d23
fc6a677f
fc646f9f
fc691228
fc6232b3
fc631a47
fc66a729
fc69cc5c
fc63d129
fc649cff
fc699feb
fc60b0fb
fc66020a
fc647b4d
fc669b7b
fc6b05e5
fc68f175
fc68b757
fc661eb8
fc67359e
fc677fbd
fc6aa0ae
fc6cdc8a
fc63edd7
fc64a8bd
fc656494
fc6b5ac1
fc67630f
fc652a65
fc679070
fc69e5c7
fc615f61
fc67ac2d
fc6226f5
fc66c8eb
fc6a733d
fc66d499
fc66e147
fc6b11a3
fc65fd05
fc685651
fc6519b3
fc6729e1
fc654623
fc69aba9
fc684a93
fc63b46b
fc658042
fc69d809
fc6ce937
fc6453d1
fc682ee6
fc6b4e14
fc681d23
fc6a677f
fc646f9f
fc691228
fc6232b3
fc631a47
fc66a729
fc69cc5c
fc63d129
fc649cff
fc699feb
fc60b0fb
fc66020a
fc647b4d
fc669b7b
fc6b05e5
fc68f175
fc68b757
fc661eb8
fc67359e
fc677fbd
fc6aa0ae
fc6cdc8a
fc63edd7
fc64a8bd
fc656494
fc6b5ac1
fc67630f
fc652a65
fc679070
fc69e5c7
fc615f61
fc67ac2d
fc6226f5
fc66c8eb
fc6a733d
fc66d499
fc66e147
fc6b11a3
fc65fd05
fc685651
fc6519b3
fc6729e1
fc654623
fc69aba9
fc684a93
fc63b46b
fc658042
fc69d809
fc6ce937
fc6453d1
fc682ee6
fc6b4e14
fc681d23
fc6a677f
fc646f9f
fc691228
fc6232b3
fc631a47
fc66a729
fc69cc5c
fc63d129
fc649cff
fc699feb
fc60b0fb
fc66020a
fc647b4d
fc669b7b
fc6b05e5
fc68f175
fc68b757
fc661eb8
fc67359e
fc677fbd
fc6aa0ae
fc6cdc8a
fc63edd7
fc64a8bd
fc656494
fc6b5ac1
fc67630f
fc652a65
fc679070
fc69e5c7
fc615f61
fc67ac2d
fc6226f5
fc66c8eb
fc6a733d
fc66d499
fc66e147
fc6b11a3
fc65fd05
fc685651
fc6519b3
fc6729e1
fc654623
fc69aba9
fc684a93
fc63b46b
fc658042
fc69d809
fc6ce937
fc6453d1
fc682ee6
fc6b4e14
fc681d23
fc6a677f
fc646f9f
fc691228
fc6232b3
fc631a47
fc66a729
fc69cc5c
fc63d129
fc649cff
fc699feb
fc60b0fb
fc66020a
fc647b4d
fc669b7b
fc6b05e5
fc68f175
fc68b757
fc661eb8
fc67359e
fc677fbd
fc6aa0ae
fc6cdc8a
fc63edd7
fc64a8bd
fc656494
fc6b5ac1
fc67630f
fc652a65
fc679070
fc69e5c7
fc615f61
fc67ac2d
fc6226f5
fc66c8eb
fc6a733d
fc66d499
fc66e147
fc6b11a3
fc65fd05
fc685651
fc6519b3
fc6729e1
fc654623
fc69aba9
fc684a93
fc63b46b
fc658042
fc69d809
fc6ce937
fc6453d1
fc682ee6
fc6b4e14
fc681d23
fc6a677f
fc646f9f
fc691228
fc6232b3
fc631a47
fc66a729
fc69cc5c
fc63d129
fc649cff
fc699feb
fc60b0fb
fc66020a
fc647b4d
fc669b7b
fc6b05e5
fc68f175
fc68b757
fc661eb8
fc67359e
fc677fbd
fc6aa0ae
fc6cdc8a
fc63edd7
fc64a8bd
fc656494
fc6b5ac1
fc67630f
fc652a65
fc679070
fc69e5c7
fc615f61
fc67ac2d
fc6226f5
fc66c8eb
fc6a733d
fc66d499
fc66e147
fc6b11a3
fc65fd05
fc685651
fc6519b3
fc6729e1
fc654623
fc69aba9
fc684a93
fc63b46b
fc658042
fc69d809
fc6ce937
fc6453d1
fc682ee6
fc6b4e14
fc681d23
fc6a677f
fc646f9f
fc691228
fc6232b3
fc631a47
fc66a729
fc69cc5c
fc63d129
fc649cff
fc699feb
fc60b0fb
fc66020a
fc647b4d
fc669b7b
fc6b05e5
fc68f175
fc68b757
fc661eb8
fc67359e
fc677fbd
fc6aa0ae
fc6cdc8a
fc63edd7
fc64a8bd
fc656494
fc6b5ac1
fc67630f
fc652a65
fc679070
fc69e5c7
fc615f61
fc67ac2d
fc6226f5
fc66c8eb
fc6a733d
fc66d499
fc66e147
fc6b11a3
fc65fd05
fc685651
fc6519b3
fc6729e1
fc654623
fc69aba9
fc684a93
fc63b46b
fc658042
fc69d809
fc6ce937
fc6453d1
fc682ee6
fc6b4e14
fc681d23
fc6a677f
fc646f9f
fc691228
fc6232b3
fc631a47
fc66a729
fc69cc5c
fc63d129
fc649cff
fc699feb
fc60b0fb
fc66020a
fc647b4d
fc669b7b
fc6b05e5
fc68f175
fc68b757
fc661eb8
fc67359e
fc677fbd
fc6aa0ae
fc6cdc8a
fc63edd7
fc64a8bd
fc656494
fc6b5ac1
fc67630f
fc652a65
fc679070
fc69e5c7
fc615f61
fc67ac2d
fc6226f5
fc66c8eb
fc6a733d
fc66d499
fc66e147
fc6b11a3
fc65fd05
fc685651
fc6519b3
fc6729e1
fc654623
fc69aba9
fc684a93
fc63b46b
fc658042
fc69d809
fc6ce937
fc6453d1
fc682ee6
fc6b4e14
fc681d23
fc6a677f
fc646f9f
fc691228
fc6232b3
fc631a47
fc66a729
fc69cc5c
fc63d129
fc649cff
fc699feb
fc60b0fb
fc66020a
fc647b4d
fc669b7b
fc6b05e5
fc68f175
fc68b757
fc661eb8
fc67359e
fc677fbd
fc6aa0ae
fc6cdc8a
fc63edd7
fc64a8bd
fc656494
fc6b5ac1
fc67630f
fc652a65
fc679070
fc69e5c7
fc615f61
fc67ac2d
fc6226f5
fc66c8eb
fc6a733d
fc66d499
fc66e147
fc6b11a3
fc65fd05
fc685651
fc6519b3
fc6729e1
fc654623
fc69aba9
fc684a93
fc63b46b
fc658042
fc69d809
fc6ce937
fc6453d1
fc682ee6
fc6b4e14
fc681d23
fc6a677f
fc646f9f
fc691228
fc6232b3
fc631a47
fc66a729
fc69cc5c
fc63d129
fc649cff
fc699feb
fc60b0fb
fc66020a
fc647b4d
fc669b7b
fc6b05e5
fc68f175
fc68b757
fc661eb8
fc67359e
fc677fbd
fc6aa0ae
fc6cdc8a
fc63edd7
fc64a8bd
fc656494
fc6b5ac1
fc67630f
fc652a65
fc679070
fc69e5c7
fc615f61
fc67ac2d
fc6226f5
fc66c8eb
fc6a733d
fc66d499
fc66e147
fc6b11a3
fc65fd05
fc685651
fc6519b3
fc6729e1
fc654623
fc69aba9
fc684a93
fc63b46b
fc658042
fc69d809
fc6ce937
fc6453d1
fc682ee6
fc6b4e14
fc681d23
fc6a677f
fc646f9f
fc691228
fc6232b3
fc631a47
fc66a729
fc69cc5c
fc63d129
fc649cff
fc699feb
fc60b0fb
fc66020a
fc647b4d
fc669b7b
fc6b05e5
fc68f175
fc68b757
fc661eb8
fc67359e
fc677fbd
fc6aa0ae
fc6cdc8a
fc63edd7
fc64a8bd
fc656494
fc6b5ac1
fc67630f
fc652a65
fc679070
fc69e5c7
fc615f61
fc67ac2d
fc6226f5
fc66c8eb
fc6a733d
fc66d499
fc66e147
fc6b11a3
fc65fd05
fc685651
fc6519b3
fc6729e1
fc654623
fc69aba9
fc684a93
fc63b46b
fc658042
fc69d809
fc6ce937
fc6453d1
fc682ee6
fc6b4e14
fc681d23
fc6a677f
fc646f9f
fc691228
fc6232b3
fc631a47
fc66a729
fc69cc5c
fc63d129
fc649cff
fc699feb
fc60b0fb
fc66020a
fc647b4d
fc669b7b
fc6b05e5
fc68f175
fc68b757
fc661eb8
fc67359e
fc677fbd
fc6aa0ae
fc6cdc8a
fc63edd7
fc64a8bd
fc656494
fc6b5ac1
fc67630f
fc652a65
fc679070
fc69e5c7
fc615f61
fc67ac2d
fc6226f5
fc66c8eb
fc6a733d
fc66d499
fc66e147
fc6b11a3
fc65fd05
fc685651
fc6519b3
fc6729e1
fc654623
fc69aba9
fc684a93
fc63b46b
fc658042
fc69d809
fc6ce937
fc6453d1
fc682ee6
fc6b4e14
fc681d23
fc6a677f
fc646f9f
fc691228
fc6232b3
fc631a47
fc66a729
fc69cc5c
fc63d129
fc649cff
fc699feb
fc60b0fb
fc66020a
fc647b4d
fc669b7b
fc6b05e5
fc68f175
fc68b757
fc661eb8
fc67359e
fc677fbd
fc6aa0ae
fc6cdc8a
fc63edd7
fc64a8bd
fc656494
fc6b5ac1
fc67630f
fc652a65
fc679070
fc69e5c7
fc615f61
fc67ac2d
fc6226f5
fc66c8eb
fc6a733d
fc66d499
fc66e147
fc6b11a3
fc65fd05
fc685651
fc6519b3
fc6729e1
fc654623
fc69aba9
fc684a93
fc63b46b
fc658042
fc69d809
fc6ce937
fc6453d1
fc682ee6
fc6b4e14
fc681d23
fc6a677f
fc646f9f
fc691228
fc6232b3
fc631a47
fc66a729
fc69cc5c
fc63d129
fc649cff
fc699feb
fc60b0fb
fc66020a
fc647b4d
fc669b7b
fc6b05e5
fc68f175
fc68b757
fc661eb8
fc67359e
fc677fbd
fc6aa0ae
fc6cdc8a
fc63edd7
fc64a8bd
fc656494
fc6b5ac1
fc67630f
fc652a65
fc679070
fc69e5c7
fc615f61
fc67ac2d
fc6226f5
fc66c8eb
fc6a733d
fc66d499
fc66e147
fc6b11a3
fc65fd05
fc685651
fc6519b3
fc6729e1
fc654623
fc69aba9
fc684a93
fc63b46b
fc658042
fc69d809
fc6ce937
fc6453d1
fc682ee6
fc6b4e14
fc681d23
fc6a677f
fc646f9f
fc691228
fc6232b3
fc631a47
fc66a729
fc69cc5c
fc63d129
fc649cff
fc699feb
fc60b0fb
fc66020a
fc647b4d
fc669b7b
fc6b05e5
fc68f175
fc68b757
fc661eb8
fc67359e
fc677fbd
fc6aa0ae
fc6cdc8a
fc63edd7
fc64a8bd
fc656494
fc6b5ac1
fc67630f
fc652a65
fc679070
fc69e5c7
fc615f61
fc67ac2d
fc6226f5
fc66c8eb
fc6a733d
fc66d499
fc66e147
fc6b11a3
fc65fd05
fc685651
fc6519b3
fc6729e1
fc654623
fc69aba9
fc684a93
fc63b46b
fc658042
fc69d809
fc6ce937
fc6453d1
fc682ee6
fc6b4e14
fc681d23
fc6a677f
fc646f9f
fc691228
fc6232b3
fc631a47
fc66a729
fc69cc5c
fc63d129
fc649cff
fc699feb
fc60b0fb
fc66020a
fc647b4d
fc669b7b
fc6b05e5
fc68f175
fc68b757
fc661eb8
fc67359e
fc677fbd
fc6aa0ae
fc6cdc8a
fc63edd7
fc64a8bd
fc656494
fc6b5ac1
fc67630f
fc652a65
fc679070
fc69e5c7
fc615f61
fc67ac2d
fc6226f5
fc66c8eb
fc6a733d
fc66d499
fc66e147
fc6b11a3
fc65fd05
fc685651
fc6519b3
fc6729e1
fc654623
fc69aba9
fc684a93
fc63b46b
fc658042
fc69d809
fc6ce937
fc6453d1
fc682ee6
fc6b4e14
fc681d23
fc6a677f
fc646f9f
fc691228
fc6232b3
fc631a47
fc66a729
fc69cc5c
fc63d129
fc649cff
fc699feb
fc60b0fb
fc66020a
fc647b4d
fc669b7b
fc6b05e5
fc68f175
fc68b757
fc661eb8
fc67359e
fc677fbd
fc6aa0ae
fc6cdc8a
fc63edd7
fc64a8bd
fc656494
fc6b5ac1
fc67630f
fc652a65
fc679070
fc69e5c7
fc615f61
fc67ac2d
fc6226f5
fc66c8eb
fc6a733d
fc66d499
fc66e147
fc6b11a3
fc65fd05
fc685651
fc6519b3
fc6729e1
fc654623
fc69aba9
fc684a93
fc63b46b
fc658042
fc69d809
fc6ce937
fc6453d1
fc682ee6
fc6b4e14
fc681d23
fc6a677f
fc646f9f
fc691228
fc6232b3
fc631a47
fc66a729
fc69cc5c
fc63d129
fc649cff
fc699feb
fc60b0fb
fc66020a
fc647b4d
fc669b7b
fc6b05e5
fc68f175
fc68b757
fc661eb8
fc67359e
fc677fbd
fc6aa0ae
fc6cdc8a
fc63edd7
fc64a8bd
fc656494
fc6b5ac1
fc67630f
fc652a65
fc679070
fc69e5c7
fc615f61
fc67ac2d
fc6226f5
fc66c8eb
fc6a733d
fc66d499
fc66e147
fc6b11a3
fc65fd05
fc685651
fc6519b3
fc6729e1
fc654623
fc69aba9
fc684a93
fc63b46b
fc658042
fc69d809
fc6ce937
fc6453d1
fc682ee6
fc6b4e14
fc681d23
fc6a677f
fc646f9f
fc691228
fc6232b3
fc631a47
fc66a729
fc69cc5c
fc63d129
fc649cff
fc699feb
fc60b0fb
fc66020a
fc647b4d
fc669b7b
fc6b05e5
fc68f175
fc68b757
fc661eb8
fc67359e
fc677fbd
fc6aa0ae
fc6cdc8a
fc63edd7
fc64a8bd
fc656494
fc6b5ac1
fc67630f
fc652a65
fc679070
fc69e5c7
fc615f61
fc67ac2d
fc6226f5
fc66c8eb
fc6a733d
fc66d499
fc66e147
fc6b11a3
fc65fd05
fc685651
fc6519b3
fc6729e1
fc654623
fc69aba9
fc684a93
fc63b46b
fc658042
fc69d809
fc6ce937
fc6453d1
fc682ee6
fc6b4e14
fc681d23
fc6a677f
fc646f9f
fc691228
fc6232b3
fc631a47
fc66a729
fc69cc5c
fc63d129
fc649cff
fc699feb
fc60b0fb
fc66020a
fc647b4d
fc669b7b
fc6b05e5
fc68f175
fc68b757
fc661eb8
fc67359e
fc677fbd
fc6aa0ae
fc6cdc8a
fc63edd7
fc64a8bd
fc656494
fc6b5ac1
fc67630f
fc652a65
fc679070
fc69e5c7
fc615f61
fc67ac2d
fc6226f5
fc66c8eb
fc6a733d
fc66d499
fc66e147
fc6b11a3
fc65fd05
fc685651
fc6519b3
fc6729e1
fc654623
fc69aba9
fc684a93
fc63b46b
fc658042
fc69d809
fc6ce937
fc6453d1
fc682ee6
fc6b4e14
fc681d23
fc6a677f
fc646f9f
fc691228
fc6232b3
fc631a47
fc66a729
fc69cc5c
fc63d129
fc649cff
fc699feb
fc60b0fb
fc66020a
fc647b4d
fc669b7b
fc6b05e5
fc68f175
fc68b757
fc661eb8
fc67359e
fc677fbd
fc6aa0ae
fc6cdc8a
fc63edd7
fc64a8bd
fc656494
fc6b5ac1
fc67630f
fc652a65
fc679070
fc69e5c7
fc615f61
fc67ac2d
fc6226f5
fc66c8eb
fc6a733d
fc66d499
fc66e147
fc6b11a3
fc65fd05
fc685651
fc6519b3
fc6729e1
fc654623
fc69aba9
fc684a93
fc63b46b
fc658042
fc69d809
fc6ce937
fc6453d1
fc682ee6
fc6b4e14
fc681d23
fc6a677f
fc646f9f
fc691228
fc6232b3
fc631a47
fc66a729
fc69cc5c
fc63d129
fc649cff
fc699feb
fc60b0fb
fc66020a
fc647b4d
fc669b7b
fc6b05e5
fc68f175
fc68b757
fc661eb8
fc67359e
fc677fbd
fc6aa0ae
fc6cdc8a
fc63edd7
fc64a8bd
fc656494
fc6b5ac1
fc67630f
fc652a65
fc679070
fc69e5c7
fc615f61
fc67ac2d
fc6226f5
fc66c8eb
fc6a733d
fc66d499
fc66e147
fc6b11a3
fc65fd05
fc685651
fc6519b3
fc6729e1
fc654623
fc69aba9
fc684a93
fc63b46b
fc658042
fc69d809
fc6ce937
fc6453d1
fc682ee6
fc6b4e14
fc681d23
fc6a677f
fc646f9f
fc691228
fc6232b3
fc631a47
fc66a729
fc69cc5c
fc63d129
fc649cff
fc699feb
fc60b0fb
fc66020a
fc647b4d
fc669b7b
fc6b05e5
fc68f175
fc68b757
fc661eb8
fc67359e
fc677fbd
fc6aa0ae
fc6cdc8a
fc63edd7
fc64a8bd
fc656494
fc6b5ac1
fc67630f
fc652a65
fc679070
fc69e5c7
fc615f61
fc67ac2d
fc6226f5
fc66c8eb
fc6a733d
fc66d499
fc66e147
fc6b11a3
fc65fd05
fc685651
fc6519b3
fc6729e1
fc654623
fc69aba9
fc684a93
fc63b46b
fc658042
fc69d809
fc6ce937
fc6453d1
fc682ee6
fc6b4e14
fc681d23
fc6a677f
fc646f9f
fc691228
fc6232b3
fc631a47
fc66a729
fc69cc5c
fc63d129
fc649cff
fc699feb
fc60b0fb
fc66020a
fc647b4d
fc669b7b
fc6b05e5
fc68f175
fc68b757
fc661eb8
fc67359e
fc677fbd
fc6aa0ae
fc6cdc8a
fc63edd7
fc64a8bd
fc656494
fc6b5ac1
fc67630f
fc652a65
fc679070
fc69e5c7
fc615f61
fc67ac2d
fc6226f5
fc66c8eb
fc6a733d
fc66d499
fc66e147
fc6b11a3
fc65fd05
fc685651
fc6519b3
fc6729e1
fc654623
fc69aba9
fc684a93
fc63b46b
fc658042
fc69d809
fc6ce937
fc6453d1
fc682ee6
fc6b4e14
fc681d23
fc6a677f
fc646f9f
fc691228
fc6232b3
fc631a47
fc66a729
fc69cc5c
fc63d129
fc649cff
fc699feb
fc60b0fb
fc66020a
fc647b4d
fc669b7b
fc6b05e5
fc68f175
fc68b757
fc661eb8
fc67359e
fc677fbd
fc6aa0ae
fc6cdc8a
fc63edd7
fc64a8bd
fc656494
fc6b5ac1
fc67630f
fc652a65
fc679070
fc69e5c7
fc615f61
fc67ac2d
fc6226f5
fc66c8eb
fc6a733d
fc66d499
fc66e147
fc6b11a3
fc65fd05
fc685651
fc6519b3
fc6729e1
fc654623
fc69aba9
fc684a93
fc63b46b
fc658042
fc69d809
fc6ce937
fc6453d1
fc682ee6
fc6b4e14
fc681d23
fc6a677f
fc646f9f
fc691228
fc6232b3
fc631a47
fc66a729
fc69cc5c
fc63d129
fc649cff
fc699feb
fc60b0fb
fc66020a
fc647b4d
fc669b7b
fc6b05e5
fc68f175
fc68b757
fc661eb8
fc67359e
fc677fbd
fc6aa0ae
fc6cdc8a
fc63edd7
fc64a8bd
fc656494
fc6b5ac1
fc67630f
fc652a65
fc679070
fc69e5c7
fc615f61
fc67ac2d
fc6226f5
fc66c8eb
fc6a733d
fc66d499
fc66e147
fc6b11a3
fc65fd05
fc685651
fc6519b3
fc6729e1
fc654623
fc69aba9
fc684a93
fc63b46b
fc658042
fc69d809
fc6ce937
fc6453d1
fc682ee6
fc6b4e14
fc681d23
fc6a677f
fc646f9f
fc691228
fc6232b3
fc631a47
fc66a729
fc69cc5c
fc63d129
fc649cff
fc699feb
fc60b0fb
fc66020a
fc647b4d
fc669b7b
fc6b05e5
fc68f175
fc68b757
fc661eb8
fc67359e
fc677fbd
fc6aa0ae
fc6cdc8a
fc63edd7
fc64a8bd
fc656494
fc6b5ac1
fc67630f
fc652a65
fc679070
fc69e5c7
fc615f61
fc67ac2d
fc6226f5
fc66c8eb
fc6a733d
fc66d499
fc66e147
fc6b11a3
fc65fd05
fc685651
fc6519b3
fc6729e1
fc654623
fc69aba9
fc684a93
fc63b46b
fc658042
fc69d809
fc6ce937
fc6453d1
fc682ee6
fc6b4e14
fc681d23
fc6a677f
fc646f9f
fc691228
fc6232b3
fc631a47
fc66a729
fc69cc5c
fc63d129
fc649cff
fc699feb
fc60b0fb
fc66020a
fc647b4d
fc669b7b
fc6b05e5
fc68f175
fc68b757
fc661eb8
fc67359e
fc677fbd
fc6aa0ae
fc6cdc8a
fc63edd7
fc64a8bd
fc656494
fc6b5ac1
fc67630f
fc652a65
fc679070
fc69e5c7
fc615f61
fc67ac2d
fc6226f5
fc66c8eb
fc6a733d
fc66d499
fc66e147
fc6b11a3
fc65fd05
fc685651
fc6519b3
fc6729e1
fc654623
fc69aba9
fc684a93
fc63b46b
fc658042
fc69d809
fc6ce937
fc6453d1
fc682ee6
fc6b4e14
fc681d23
fc6a677f
fc646f9f
fc691228
fc6232b3
fc631a47
fc66a729
fc69cc5c
fc63d129
fc649cff
fc699feb
fc60b0fb
fc66020a
fc647b4d
fc669b7b
fc6b05e5
fc68f175
fc68b757
fc661eb8
fc67359e
fc677fbd
fc6aa0ae
fc6cdc8a
fc63edd7
fc64a8bd
fc656494
fc6b5ac1
fc67630f
fc652a65
fc679070
fc69e5c7
fc615f61
fc67ac2d
fc6226f5
fc66c8eb
fc6a733d
fc66d499
fc66e147
fc6b11a3
fc65fd05
fc685651
fc6519b3
fc6729e1
fc654623
fc69aba9
fc684a93
fc63b46b
fc658042
fc69d809
fc6ce937
fc6453d1
fc682ee6
fc6b4e14
fc681d23
fc6a677f
fc646f9f
fc691228
fc6232b3
fc631a47
fc66a729
fc69cc5c
fc63d129
fc649cff
fc699feb
fc60b0fb
fc66020a
fc647b4d
fc669b7b
fc6b05e5
fc68f175
fc68b757
fc661eb8
fc67359e
fc677fbd
fc6aa0ae
fc6cdc8a
fc63edd7
fc64a8bd
fc656494
fc6b5ac1
fc67630f
fc652a65
fc679070
fc69e5c7
fc615f61
fc67ac2d
fc6226f5
fc66c8eb
fc6a733d
fc66d499
fc66e147
fc6b11a3
fc65fd05
fc685651
fc6519b3
fc6729e1
fc654623
fc69aba9
fc684a93
fc63b46b
fc658042
fc69d809
fc6ce937
fc6453d1
fc682ee6
fc6b4e14
fc681d23
fc6a677f
fc646f9f
fc691228
fc6232b3
fc631a47
fc66a729
fc69cc5c
fc63d129
fc649cff
fc699feb
fc60b0fb
fc66020a
fc647b4d
fc669b7b
fc6b05e5
fc68f175
fc68b757
fc661eb8
fc67359e
fc677fbd
fc6aa0ae
fc6cdc8a
fc63edd7
fc64a8bd
fc656494
fc6b5ac1
fc67630f
fc652a65
fc679070
fc69e5c7
fc615f61
fc67ac2d
fc6226f5
fc66c8eb
fc6a733d
fc66d499
fc66e147
fc6b11a3
fc65fd05
fc685651
fc6519b3
fc6729e1
fc654623
fc69aba9
fc684a93
fc63b46b
fc658042
fc69d809
fc6ce937
fc6453d1
fc682ee6
fc6b4e14
fc681d23
fc6a677f
fc646f9f
fc691228
fc6232b3
fc631a47
fc66a729
fc69cc5c
fc63d129
fc649cff
fc699feb
fc60b0fb
fc66020a
fc647b4d
fc669b7b
fc6b05e5
fc68f175
fc68b757
fc661eb8
fc67359e
fc677fbd
fc6aa0ae
fc6cdc8a
fc63edd7
fc64a8bd
fc656494
fc6b5ac1
fc67630f
fc652a65
fc679070
fc69e5c7
fc615f61
fc67ac2d
fc6226f5
fc66c8eb
fc6a733d
fc66d499
fc66e147
fc6b11a3
fc65fd05
fc685651
fc6519b3
fc6729e1
fc654623
fc69aba9
fc684a93
fc63b46b
fc658042
fc69d809
fc6ce937
fc6453d1
fc682ee6
fc6b4e14
fc681d23
fc6a677f
fc646f9f
fc691228
fc6232b3
fc631a47
fc66a729
fc69cc5c
fc63d129
fc649cff
fc699feb
fc60b0fb
fc66020a
fc647b4d
fc669b7b
fc6b05e5
fc68f175
fc68b757
fc661eb8
fc67359e
fc677fbd
fc6aa0ae
fc6cdc8a
fc63edd7
fc64a8bd
fc656494
fc6b5ac1
fc67630f
fc652a65
fc679070
fc69e5c7
fc615f61
fc67ac2d
fc6226f5
fc66c8eb
fc6a733d
fc66d499
fc66e147
fc6b11a3
fc65fd05
fc685651
fc6519b3
fc6729e1
fc654623
fc69aba9
fc684a93
fc63b46b
fc658042
fc69d809
fc6ce937
fc6453d1
fc682ee6
fc6b4e14
fc681d23
fc6a677f
fc646f9f
fc691228
fc6232b3
fc631a47
fc66a729
fc69cc5c
fc63d129
fc649cff
fc699feb
fc60b0fb
fc66020a
fc647b4d
fc669b7b
fc6b05e5
fc68f175
fc68b757
fc661eb8
fc67359e
fc677fbd
fc6aa0ae
fc6cdc8a
fc63edd7
fc64a8bd
fc656494
fc6b5ac1
fc67630f
fc652a65
fc679070
fc69e5c7
fc615f61
fc67ac2d
fc6226f5
fc66c8eb
fc6a733d
fc66d499
fc66e147
fc6b11a3
fc65fd05
fc685651
fc6519b3
fc6729e1
fc654623
fc69aba9
fc684a93
fc63b46b
fc658042
fc69d809
fc6ce937
fc6453d1
fc682ee6
fc6b4e14
fc681d23
fc6a677f
fc646f9f
fc691228
fc6232b3
fc631a47
fc66a729
fc69cc5c
fc63d129
fc649cff
fc699feb
fc60b0fb
fc66020a
fc647b4d
fc669b7b
fc6b05e5
fc68f175
fc68b757
fc661eb8
fc67359e
fc677fbd
fc6aa0ae
fc6cdc8a
fc63edd7
fc64a8bd
fc656494
fc6b5ac1
fc67630f
fc652a65
fc679070
fc69e5c7
fc615f61
fc67ac2d
fc6226f5
fc66c8eb
fc6a733d
fc66d499
fc66e147
fc6b11a3
fc65fd05
fc685651
fc6519b3
fc6729e1
fc654623
fc69aba9
fc684a93
fc63b46b
fc658042
fc69d809
fc6ce937
fc6453d1
fc682ee6
fc6b4e14
fc681d23
fc6a677f
fc646f9f
fc691228
fc6232b3
fc631a47
fc66a729
fc69cc5c
fc63d129
fc649cff
fc699feb
fc60b0fb
fc66020a
fc647b4d
fc669b7b
fc6b05e5
fc68f175
fc68b757
fc661eb8
fc67359e
fc677fbd
fc6aa0ae
fc6cdc8a
fc63edd7
fc64a8bd
fc656494
fc6b5ac1
fc67630f
fc652a65
fc679070
fc69e5c7
fc615f61
fc67ac2d
fc6226f5
fc66c8eb
fc6a733d
fc66d499
fc66e147
fc6b11a3
fc65fd05
fc685651
fc6519b3
fc6729e1
fc654623
fc69aba9
fc684a93
fc63b46b
fc658042
fc69d809
fc6ce937
fc6453d1
fc682ee6
fc6b4e14
fc681d23
fc6a677f
fc646f9f
fc691228
fc6232b3
fc631a47
fc66a729
fc69cc5c
fc63d129
fc649cff
fc699feb
fc60b0fb
fc66020a
fc647b4d
fc669b7b
fc6b05e5
fc68f175
fc68b757
fc661eb8
fc67359e
fc677fbd
fc6aa0ae
fc6cdc8a
fc63edd7
fc64a8bd
fc656494
fc6b5ac1
fc67630f
fc652a65
fc679070
fc69e5c7
fc615f61
fc67ac2d
fc6226f5
fc66c8eb
fc6a733d
fc66d499
fc66e147
fc6b11a3
fc65fd05
fc685651
fc6519b3
fc6729e1
fc654623
fc69aba9
fc684a93
fc63b46b
fc658042
fc69d809
fc6ce937
fc6453d1
fc682ee6
fc6b4e14
fc681d23
fc6a677f
fc646f9f
fc691228
fc6232b3
fc631a47
fc66a729
fc69cc5c
fc63d129
fc649cff
fc699feb
fc60b0fb
fc66020a
fc647b4d
fc669b7b
fc6b05e5
fc68f175
fc68b757
fc661eb8
fc67359e
fc677fbd
fc6aa0ae
fc6cdc8a
fc63edd7
fc64a8bd
fc656494
fc6b5ac1
fc67630f
fc652a65
fc679070
fc69e5c7
fc615f61
fc67ac2d
fc6226f5
fc66c8eb
fc6a733d
fc66d499
fc66e147
fc6b11a3
fc65fd05
fc685651
fc6519b3
fc6729e1
fc654623
fc69aba9
fc684a93
fc63b46b
fc658042
fc69d809
fc6ce937
fc6453d1
fc682ee6
fc6b4e14
fc681d23
fc6a677f
fc646f9f
fc691228
fc6232b3
fc631a47
fc66a729
fc69cc5c
fc63d129
fc649cff
fc699feb
fc60b0fb
fc66020a
fc647b4d
fc669b7b
fc6b05e5
fc68f175
fc68b757
fc661eb8
fc67359e
fc677fbd
fc6aa0ae
fc6cdc8a
fc63edd7
fc64a8bd
fc656494
fc6b5ac1
fc67630f
fc652a65
fc679070
fc69e5c7
fc615f61
fc67ac2d
fc6226f5
fc66c8eb
fc6a733d
fc66d499
fc66e147
fc6b11a3
fc65fd05
fc685651
fc6519b3
fc6729e1
fc654623
fc69aba9
fc684a93
fc63b46b
fc658042
fc69d809
fc6ce937
fc6453d1
fc682ee6
fc6b4e14
fc681d23
fc6a677f
fc646f9f
fc691228
fc6232b3
fc631a47
fc66a729
fc69cc5c
fc63d129
fc649cff
fc699feb
fc60b0fb
fc66020a
fc647b4d
fc669b7b
fc6b05e5
fc68f175
fc68b757
fc661eb8
fc67359e
fc677fbd
fc6aa0ae
fc6cdc8a
fc63edd7
fc64a8bd
fc656494
fc6b5ac1
fc67630f
fc652a65
fc679070
fc69e5c7
fc615f61
fc67ac2d
fc6226f5
fc66c8eb
fc6a733d
fc66d499
fc66e147
fc6b11a3
fc65fd05
fc685651
fc6519b3
fc6729e1
fc654623
fc69aba9
fc684a93
fc63b46b
fc658042
fc69d809
fc6ce937
fc6453d1
fc682ee6
fc6b4e14
fc681d23
fc6a677f
fc646f9f
fc691228
fc6232b3
fc631a47
fc66a729
fc69cc5c
fc63d129
fc649cff
fc699feb
fc60b0fb
fc66020a
fc647b4d
fc669b7b
fc6b05e5
fc68f175
fc68b757
fc661eb8
fc67359e
fc677fbd
fc6aa0ae
fc6cdc8a
fc63edd7
fc64a8bd
fc656494
fc6b5ac1
fc67630f
fc652a65
fc679070
fc69e5c7
fc615f61
fc67ac2d
fc6226f5
fc66c8eb
fc6a733d
fc66d499
fc66e147
fc6b11a3
fc65fd05
fc685651
fc6519b3
fc6729e1
fc654623
fc69aba9
fc684a93
fc63b46b
fc658042
