fc75c094
fc7c0d52
fc7e67ae
fc7cf1a4
fc72cc24
fc75b3e6
fc7ee462
fc7fbcf6
fc70838a
fc7e3a3e
fc716b1f
fc7cb886
fc77525c
fc7ff514
fc72e8d2
fc704a6c
fc721542
fc733d29
fc758676
fc7dabc8
fc71f480
fc73217c
fc78e0c2
fc7e2d80
fc7397fa
fc7404be
fc7fe967
fc7d8f1a
fc70661a
fc7121f0
fc71004d
fc7fc8a4
fc767ab8
fc70af38
fc7177dc
fc74f800
fc73a3b8
fc7e735c
fc7d46fc
fc742570
fc75ec42
fc74322e
fc734edc
fc7f01c2
fc736a9a
fc72b066
fc737648
fc7282f6
fc766e0a
fc7072d8
fc70dda9
fc713ebe
fc72f985
fc7b2900
fc78d404
fc729fb3
fc75c094
fc7c0d52
fc7e67ae
fc7cf1a4
fc72cc24
fc75b3e6
fc7ee462
fc7fbcf6
fc70838a
fc7e3a3e
fc716b1f
fc7cb886
fc77525c
fc7ff514
fc72e8d2
fc704a6c
fc721542
fc733d29
fc758676
fc7dabc8
fc71f480
fc73217c
fc78e0c2
fc7e2d80
fc7397fa
fc7404be
fc7fe967
fc7d8f1a
fc70661a
fc7121f0
fc71004d
fc7fc8a4
fc767ab8
fc70af38
fc7177dc
fc74f800
fc73a3b8
fc7e735c
fc7d46fc
fc742570
fc75ec42
fc74322e
fc734edc
fc7f01c2
fc736a9a
fc72b066
fc737648
fc7282f6
fc766e0a
fc7072d8
fc70dda9
fc713ebe
fc72f985
fc7b2900
fc78d404
fc729fb3
fc75c094
fc7c0d52
fc7e67ae
fc7cf1a4
fc72cc24
fc75b3e6
fc7ee462
fc7fbcf6
fc70838a
fc7e3a3e
fc716b1f
fc7cb886
fc77525c
fc7ff514
fc72e8d2
fc704a6c
fc721542
fc733d29
fc758676
fc7dabc8
fc71f480
fc73217c
fc78e0c2
fc7e2d80
fc7397fa
fc7404be
fc7fe967
fc7d8f1a
fc70661a
fc7121f0
fc71004d
fc7fc8a4
fc767ab8
fc70af38
fc7177dc
fc74f800
fc73a3b8
fc7e735c
fc7d46fc
fc742570
fc75ec42
fc74322e
fc734edc
fc7f01c2
fc736a9a
fc72b066
fc737648
fc7282f6
fc766e0a
fc7072d8
fc70dda9
fc713ebe
fc72f985
fc7b2900
fc78d404
fc729fb3
fc75c094
fc7c0d52
fc7e67ae
fc7cf1a4
fc72cc24
fc75b3e6
fc7ee462
fc7fbcf6
fc70838a
fc7e3a3e
fc716b1f
fc7cb886
fc77525c
fc7ff514
fc72e8d2
fc704a6c
fc721542
fc733d29
fc758676
fc7dabc8
fc71f480
fc73217c
fc78e0c2
fc7e2d80
fc7397fa
fc7404be
fc7fe967
fc7d8f1a
fc70661a
fc7121f0
fc71004d
fc7fc8a4
fc767ab8
fc70af38
fc7177dc
fc74f800
fc73a3b8
fc7e735c
fc7d46fc
fc742570
fc75ec42
fc74322e
fc734edc
fc7f01c2
fc736a9a
fc72b066
fc737648
fc7282f6
fc766e0a
fc7072d8
fc70dda9
fc713ebe
fc72f985
fc7b2900
fc78d404
fc729fb3
fc75c094
fc7c0d52
fc7e67ae
fc7cf1a4
fc72cc24
fc75b3e6
fc7ee462
fc7fbcf6
fc70838a
fc7e3a3e
fc716b1f
fc7cb886
fc77525c
fc7ff514
fc72e8d2
fc704a6c
fc721542
fc733d29
fc758676
fc7dabc8
fc71f480
fc73217c
fc78e0c2
fc7e2d80
fc7397fa
fc7404be
fc7fe967
fc7d8f1a
fc70661a
fc7121f0
fc71004d
fc7fc8a4
fc767ab8
fc70af38
fc7177dc
fc74f800
fc73a3b8
fc7e735c
fc7d46fc
fc742570
fc75ec42
fc74322e
fc734edc
fc7f01c2
fc736a9a
fc72b066
fc737648
fc7282f6
fc766e0a
fc7072d8
fc70dda9
fc713ebe
fc72f985
fc7b2900
fc78d404
fc729fb3
fc75c094
fc7c0d52
fc7e67ae
fc7cf1a4
fc72cc24
fc75b3e6
fc7ee462
fc7fbcf6
fc70838a
fc7e3a3e
fc716b1f
fc7cb886
fc77525c
fc7ff514
fc72e8d2
fc704a6c
fc721542
fc733d29
fc758676
fc7dabc8
fc71f480
fc73217c
fc78e0c2
fc7e2d80
fc7397fa
fc7404be
fc7fe967
fc7d8f1a
fc70661a
fc7121f0
fc71004d
fc7fc8a4
fc767ab8
fc70af38
fc7177dc
fc74f800
fc73a3b8
fc7e735c
fc7d46fc
fc742570
fc75ec42
fc74322e
fc734edc
fc7f01c2
fc736a9a
fc72b066
fc737648
fc7282f6
fc766e0a
fc7072d8
fc70dda9
fc713ebe
fc72f985
fc7b2900
fc78d404
fc729fb3
fc75c094
fc7c0d52
fc7e67ae
fc7cf1a4
fc72cc24
fc75b3e6
fc7ee462
fc7fbcf6
fc70838a
fc7e3a3e
fc716b1f
fc7cb886
fc77525c
fc7ff514
fc72e8d2
fc704a6c
fc721542
fc733d29
fc758676
fc7dabc8
fc71f480
fc73217c
fc78e0c2
fc7e2d80
fc7397fa
fc7404be
fc7fe967
fc7d8f1a
fc70661a
fc7121f0
fc71004d
fc7fc8a4
fc767ab8
fc70af38
fc7177dc
fc74f800
fc73a3b8
fc7e735c
fc7d46fc
fc742570
fc75ec42
fc74322e
fc734edc
fc7f01c2
fc736a9a
fc72b066
fc737648
fc7282f6
fc766e0a
fc7072d8
fc70dda9
fc713ebe
fc72f985
fc7b2900
fc78d404
fc729fb3
fc75c094
fc7c0d52
fc7e67ae
fc7cf1a4
fc72cc24
fc75b3e6
fc7ee462
fc7fbcf6
fc70838a
fc7e3a3e
fc716b1f
fc7cb886
fc77525c
fc7ff514
fc72e8d2
fc704a6c
fc721542
fc733d29
fc758676
fc7dabc8
fc71f480
fc73217c
fc78e0c2
fc7e2d80
fc7397fa
fc7404be
fc7fe967
fc7d8f1a
fc70661a
fc7121f0
fc71004d
fc7fc8a4
fc767ab8
fc70af38
fc7177dc
fc74f800
fc73a3b8
fc7e735c
fc7d46fc
fc742570
fc75ec42
fc74322e
fc734edc
fc7f01c2
fc736a9a
fc72b066
fc737648
fc7282f6
fc766e0a
fc7072d8
fc70dda9
fc713ebe
fc72f985
fc7b2900
fc78d404
fc729fb3
fc75c094
fc7c0d52
fc7e67ae
fc7cf1a4
fc72cc24
fc75b3e6
fc7ee462
fc7fbcf6
fc70838a
fc7e3a3e
fc716b1f
fc7cb886
fc77525c
fc7ff514
fc72e8d2
fc704a6c
fc721542
fc733d29
fc758676
fc7dabc8
fc71f480
fc73217c
fc78e0c2
fc7e2d80
fc7397fa
fc7404be
fc7fe967
fc7d8f1a
fc70661a
fc7121f0
fc71004d
fc7fc8a4
fc767ab8
fc70af38
fc7177dc
fc74f800
fc73a3b8
fc7e735c
fc7d46fc
fc742570
fc75ec42
fc74322e
fc734edc
fc7f01c2
fc736a9a
fc72b066
fc737648
fc7282f6
fc766e0a
fc7072d8
fc70dda9
fc713ebe
fc72f985
fc7b2900
fc78d404
fc729fb3
fc75c094
fc7c0d52
fc7e67ae
fc7cf1a4
fc72cc24
fc75b3e6
fc7ee462
fc7fbcf6
fc70838a
fc7e3a3e
fc716b1f
fc7cb886
fc77525c
fc7ff514
fc72e8d2
fc704a6c
fc721542
fc733d29
fc758676
fc7dabc8
fc71f480
fc73217c
fc78e0c2
fc7e2d80
fc7397fa
fc7404be
fc7fe967
fc7d8f1a
fc70661a
fc7121f0
fc71004d
fc7fc8a4
fc767ab8
fc70af38
fc7177dc
fc74f800
fc73a3b8
fc7e735c
fc7d46fc
fc742570
fc75ec42
fc74322e
fc734edc
fc7f01c2
fc736a9a
fc72b066
fc737648
fc7282f6
fc766e0a
fc7072d8
fc70dda9
fc713ebe
fc72f985
fc7b2900
fc78d404
fc729fb3
fc75c094
fc7c0d52
fc7e67ae
fc7cf1a4
fc72cc24
fc75b3e6
fc7ee462
fc7fbcf6
fc70838a
fc7e3a3e
fc716b1f
fc7cb886
fc77525c
fc7ff514
fc72e8d2
fc704a6c
fc721542
fc733d29
fc758676
fc7dabc8
fc71f480
fc73217c
fc78e0c2
fc7e2d80
fc7397fa
fc7404be
fc7fe967
fc7d8f1a
fc70661a
fc7121f0
fc71004d
fc7fc8a4
fc767ab8
fc70af38
fc7177dc
fc74f800
fc73a3b8
fc7e735c
fc7d46fc
fc742570
fc75ec42
fc74322e
fc734edc
fc7f01c2
fc736a9a
fc72b066
fc737648
fc7282f6
fc766e0a
fc7072d8
fc70dda9
fc713ebe
fc72f985
fc7b2900
fc78d404
fc729fb3
fc75c094
fc7c0d52
fc7e67ae
fc7cf1a4
fc72cc24
fc75b3e6
fc7ee462
fc7fbcf6
fc70838a
fc7e3a3e
fc716b1f
fc7cb886
fc77525c
fc7ff514
fc72e8d2
fc704a6c
fc721542
fc733d29
fc758676
fc7dabc8
fc71f480
fc73217c
fc78e0c2
fc7e2d80
fc7397fa
fc7404be
fc7fe967
fc7d8f1a
fc70661a
fc7121f0
fc71004d
fc7fc8a4
fc767ab8
fc70af38
fc7177dc
fc74f800
fc73a3b8
fc7e735c
fc7d46fc
fc742570
fc75ec42
fc74322e
fc734edc
fc7f01c2
fc736a9a
fc72b066
fc737648
fc7282f6
fc766e0a
fc7072d8
fc70dda9
fc713ebe
fc72f985
fc7b2900
fc78d404
fc729fb3
fc75c094
fc7c0d52
fc7e67ae
fc7cf1a4
fc72cc24
fc75b3e6
fc7ee462
fc7fbcf6
fc70838a
fc7e3a3e
fc716b1f
fc7cb886
fc77525c
fc7ff514
fc72e8d2
fc704a6c
fc721542
fc733d29
fc758676
fc7dabc8
fc71f480
fc73217c
fc78e0c2
fc7e2d80
fc7397fa
fc7404be
fc7fe967
fc7d8f1a
fc70661a
fc7121f0
fc71004d
fc7fc8a4
fc767ab8
fc70af38
fc7177dc
fc74f800
fc73a3b8
fc7e735c
fc7d46fc
fc742570
fc75ec42
fc74322e
fc734edc
fc7f01c2
fc736a9a
fc72b066
fc737648
fc7282f6
fc766e0a
fc7072d8
fc70dda9
fc713ebe
fc72f985
fc7b2900
fc78d404
fc729fb3
fc75c094
fc7c0d52
fc7e67ae
fc7cf1a4
fc72cc24
fc75b3e6
fc7ee462
fc7fbcf6
fc70838a
fc7e3a3e
fc716b1f
fc7cb886
fc77525c
fc7ff514
fc72e8d2
fc704a6c
fc721542
fc733d29
fc758676
fc7dabc8
fc71f480
fc73217c
fc78e0c2
fc7e2d80
fc7397fa
fc7404be
fc7fe967
fc7d8f1a
fc70661a
fc7121f0
fc71004d
fc7fc8a4
fc767ab8
fc70af38
fc7177dc
fc74f800
fc73a3b8
fc7e735c
fc7d46fc
fc742570
fc75ec42
fc74322e
fc734edc
fc7f01c2
fc736a9a
fc72b066
fc737648
fc7282f6
fc766e0a
fc7072d8
fc70dda9
fc713ebe
fc72f985
fc7b2900
fc78d404
fc729fb3
fc75c094
fc7c0d52
fc7e67ae
fc7cf1a4
fc72cc24
fc75b3e6
fc7ee462
fc7fbcf6
fc70838a
fc7e3a3e
fc716b1f
fc7cb886
fc77525c
fc7ff514
fc72e8d2
fc704a6c
fc721542
fc733d29
fc758676
fc7dabc8
fc71f480
fc73217c
fc78e0c2
fc7e2d80
fc7397fa
fc7404be
fc7fe967
fc7d8f1a
fc70661a
fc7121f0
fc71004d
fc7fc8a4
fc767ab8
fc70af38
fc7177dc
fc74f800
fc73a3b8
fc7e735c
fc7d46fc
fc742570
fc75ec42
fc74322e
fc734edc
fc7f01c2
fc736a9a
fc72b066
fc737648
fc7282f6
fc766e0a
fc7072d8
fc70dda9
fc713ebe
fc72f985
fc7b2900
fc78d404
fc729fb3
fc75c094
fc7c0d52
fc7e67ae
fc7cf1a4
fc72cc24
fc75b3e6
fc7ee462
fc7fbcf6
fc70838a
fc7e3a3e
fc716b1f
fc7cb886
fc77525c
fc7ff514
fc72e8d2
fc704a6c
fc721542
fc733d29
fc758676
fc7dabc8
fc71f480
fc73217c
fc78e0c2
fc7e2d80
fc7397fa
fc7404be
fc7fe967
fc7d8f1a
fc70661a
fc7121f0
fc71004d
fc7fc8a4
fc767ab8
fc70af38
fc7177dc
fc74f800
fc73a3b8
fc7e735c
fc7d46fc
fc742570
fc75ec42
fc74322e
fc734edc
fc7f01c2
fc736a9a
fc72b066
fc737648
fc7282f6
fc766e0a
fc7072d8
fc70dda9
fc713ebe
fc72f985
fc7b2900
fc78d404
fc729fb3
fc75c094
fc7c0d52
fc7e67ae
fc7cf1a4
fc72cc24
fc75b3e6
fc7ee462
fc7fbcf6
fc70838a
fc7e3a3e
fc716b1f
fc7cb886
fc77525c
fc7ff514
fc72e8d2
fc704a6c
fc721542
fc733d29
fc758676
fc7dabc8
fc71f480
fc73217c
fc78e0c2
fc7e2d80
fc7397fa
fc7404be
fc7fe967
fc7d8f1a
fc70661a
fc7121f0
fc71004d
fc7fc8a4
fc767ab8
fc70af38
fc7177dc
fc74f800
fc73a3b8
fc7e735c
fc7d46fc
fc742570
fc75ec42
fc74322e
fc734edc
fc7f01c2
fc736a9a
fc72b066
fc737648
fc7282f6
fc766e0a
fc7072d8
fc70dda9
fc713ebe
fc72f985
fc7b2900
fc78d404
fc729fb3
fc75c094
fc7c0d52
fc7e67ae
fc7cf1a4
fc72cc24
fc75b3e6
fc7ee462
fc7fbcf6
fc70838a
fc7e3a3e
fc716b1f
fc7cb886
fc77525c
fc7ff514
fc72e8d2
fc704a6c
fc721542
fc733d29
fc758676
fc7dabc8
fc71f480
fc73217c
fc78e0c2
fc7e2d80
fc7397fa
fc7404be
fc7fe967
fc7d8f1a
fc70661a
fc7121f0
fc71004d
fc7fc8a4
fc767ab8
fc70af38
fc7177dc
fc74f800
fc73a3b8
fc7e735c
fc7d46fc
fc742570
fc75ec42
fc74322e
fc734edc
fc7f01c2
fc736a9a
fc72b066
fc737648
fc7282f6
fc766e0a
fc7072d8
fc70dda9
fc713ebe
fc72f985
fc7b2900
fc78d404
fc729fb3
fc75c094
fc7c0d52
fc7e67ae
fc7cf1a4
fc72cc24
fc75b3e6
fc7ee462
fc7fbcf6
fc70838a
fc7e3a3e
fc716b1f
fc7cb886
fc77525c
fc7ff514
fc72e8d2
fc704a6c
fc721542
fc733d29
fc758676
fc7dabc8
fc71f480
fc73217c
fc78e0c2
fc7e2d80
fc7397fa
fc7404be
fc7fe967
fc7d8f1a
fc70661a
fc7121f0
fc71004d
fc7fc8a4
fc767ab8
fc70af38
fc7177dc
fc74f800
fc73a3b8
fc7e735c
fc7d46fc
fc742570
fc75ec42
fc74322e
fc734edc
fc7f01c2
fc736a9a
fc72b066
fc737648
fc7282f6
fc766e0a
fc7072d8
fc70dda9
fc713ebe
fc72f985
fc7b2900
fc78d404
fc729fb3
fc75c094
fc7c0d52
fc7e67ae
fc7cf1a4
fc72cc24
fc75b3e6
fc7ee462
fc7fbcf6
fc70838a
fc7e3a3e
fc716b1f
fc7cb886
fc77525c
fc7ff514
fc72e8d2
fc704a6c
fc721542
fc733d29
fc758676
fc7dabc8
fc71f480
fc73217c
fc78e0c2
fc7e2d80
fc7397fa
fc7404be
fc7fe967
fc7d8f1a
fc70661a
fc7121f0
fc71004d
fc7fc8a4
fc767ab8
fc70af38
fc7177dc
fc74f800
fc73a3b8
fc7e735c
fc7d46fc
fc742570
fc75ec42
fc74322e
fc734edc
fc7f01c2
fc736a9a
fc72b066
fc737648
fc7282f6
fc766e0a
fc7072d8
fc70dda9
fc713ebe
fc72f985
fc7b2900
fc78d404
fc729fb3
fc75c094
fc7c0d52
fc7e67ae
fc7cf1a4
fc72cc24
fc75b3e6
fc7ee462
fc7fbcf6
fc70838a
fc7e3a3e
fc716b1f
fc7cb886
fc77525c
fc7ff514
fc72e8d2
fc704a6c
fc721542
fc733d29
fc758676
fc7dabc8
fc71f480
fc73217c
fc78e0c2
fc7e2d80
fc7397fa
fc7404be
fc7fe967
fc7d8f1a
fc70661a
fc7121f0
fc71004d
fc7fc8a4
fc767ab8
fc70af38
fc7177dc
fc74f800
fc73a3b8
fc7e735c
fc7d46fc
fc742570
fc75ec42
fc74322e
fc734edc
fc7f01c2
fc736a9a
fc72b066
fc737648
fc7282f6
fc766e0a
fc7072d8
fc70dda9
fc713ebe
fc72f985
fc7b2900
fc78d404
fc729fb3
fc75c094
fc7c0d52
fc7e67ae
fc7cf1a4
fc72cc24
fc75b3e6
fc7ee462
fc7fbcf6
fc70838a
fc7e3a3e
fc716b1f
fc7cb886
fc77525c
fc7ff514
fc72e8d2
fc704a6c
fc721542
fc733d29
fc758676
fc7dabc8
fc71f480
fc73217c
fc78e0c2
fc7e2d80
fc7397fa
fc7404be
fc7fe967
fc7d8f1a
fc70661a
fc7121f0
fc71004d
fc7fc8a4
fc767ab8
fc70af38
fc7177dc
fc74f800
fc73a3b8
fc7e735c
fc7d46fc
fc742570
fc75ec42
fc74322e
fc734edc
fc7f01c2
fc736a9a
fc72b066
fc737648
fc7282f6
fc766e0a
fc7072d8
fc70dda9
fc713ebe
fc72f985
fc7b2900
fc78d404
fc729fb3
fc75c094
fc7c0d52
fc7e67ae
fc7cf1a4
fc72cc24
fc75b3e6
fc7ee462
fc7fbcf6
fc70838a
fc7e3a3e
fc716b1f
fc7cb886
fc77525c
fc7ff514
fc72e8d2
fc704a6c
fc721542
fc733d29
fc758676
fc7dabc8
fc71f480
fc73217c
fc78e0c2
fc7e2d80
fc7397fa
fc7404be
fc7fe967
fc7d8f1a
fc70661a
fc7121f0
fc71004d
fc7fc8a4
fc767ab8
fc70af38
fc7177dc
fc74f800
fc73a3b8
fc7e735c
fc7d46fc
fc742570
fc75ec42
fc74322e
fc734edc
fc7f01c2
fc736a9a
fc72b066
fc737648
fc7282f6
fc766e0a
fc7072d8
fc70dda9
fc713ebe
fc72f985
fc7b2900
fc78d404
fc729fb3
fc75c094
fc7c0d52
fc7e67ae
fc7cf1a4
fc72cc24
fc75b3e6
fc7ee462
fc7fbcf6
fc70838a
fc7e3a3e
fc716b1f
fc7cb886
fc77525c
fc7ff514
fc72e8d2
fc704a6c
fc721542
fc733d29
fc758676
fc7dabc8
fc71f480
fc73217c
fc78e0c2
fc7e2d80
fc7397fa
fc7404be
fc7fe967
fc7d8f1a
fc70661a
fc7121f0
fc71004d
fc7fc8a4
fc767ab8
fc70af38
fc7177dc
fc74f800
fc73a3b8
fc7e735c
fc7d46fc
fc742570
fc75ec42
fc74322e
fc734edc
fc7f01c2
fc736a9a
fc72b066
fc737648
fc7282f6
fc766e0a
fc7072d8
fc70dda9
fc713ebe
fc72f985
fc7b2900
fc78d404
fc729fb3
fc75c094
fc7c0d52
fc7e67ae
fc7cf1a4
fc72cc24
fc75b3e6
fc7ee462
fc7fbcf6
fc70838a
fc7e3a3e
fc716b1f
fc7cb886
fc77525c
fc7ff514
fc72e8d2
fc704a6c
fc721542
fc733d29
fc758676
fc7dabc8
fc71f480
fc73217c
fc78e0c2
fc7e2d80
fc7397fa
fc7404be
fc7fe967
fc7d8f1a
fc70661a
fc7121f0
fc71004d
fc7fc8a4
fc767ab8
fc70af38
fc7177dc
fc74f800
fc73a3b8
fc7e735c
fc7d46fc
fc742570
fc75ec42
fc74322e
fc734edc
fc7f01c2
fc736a9a
fc72b066
fc737648
fc7282f6
fc766e0a
fc7072d8
fc70dda9
fc713ebe
fc72f985
fc7b2900
fc78d404
fc729fb3
fc75c094
fc7c0d52
fc7e67ae
fc7cf1a4
fc72cc24
fc75b3e6
fc7ee462
fc7fbcf6
fc70838a
fc7e3a3e
fc716b1f
fc7cb886
fc77525c
fc7ff514
fc72e8d2
fc704a6c
fc721542
fc733d29
fc758676
fc7dabc8
fc71f480
fc73217c
fc78e0c2
fc7e2d80
fc7397fa
fc7404be
fc7fe967
fc7d8f1a
fc70661a
fc7121f0
fc71004d
fc7fc8a4
fc767ab8
fc70af38
fc7177dc
fc74f800
fc73a3b8
fc7e735c
fc7d46fc
fc742570
fc75ec42
fc74322e
fc734edc
fc7f01c2
fc736a9a
fc72b066
fc737648
fc7282f6
fc766e0a
fc7072d8
fc70dda9
fc713ebe
fc72f985
fc7b2900
fc78d404
fc729fb3
fc75c094
fc7c0d52
fc7e67ae
fc7cf1a4
fc72cc24
fc75b3e6
fc7ee462
fc7fbcf6
fc70838a
fc7e3a3e
fc716b1f
fc7cb886
fc77525c
fc7ff514
fc72e8d2
fc704a6c
fc721542
fc733d29
fc758676
fc7dabc8
fc71f480
fc73217c
fc78e0c2
fc7e2d80
fc7397fa
fc7404be
fc7fe967
fc7d8f1a
fc70661a
fc7121f0
fc71004d
fc7fc8a4
fc767ab8
fc70af38
fc7177dc
fc74f800
fc73a3b8
fc7e735c
fc7d46fc
fc742570
fc75ec42
fc74322e
fc734edc
fc7f01c2
fc736a9a
fc72b066
fc737648
fc7282f6
fc766e0a
fc7072d8
fc70dda9
fc713ebe
fc72f985
fc7b2900
fc78d404
fc729fb3
fc75c094
fc7c0d52
fc7e67ae
fc7cf1a4
fc72cc24
fc75b3e6
fc7ee462
fc7fbcf6
fc70838a
fc7e3a3e
fc716b1f
fc7cb886
fc77525c
fc7ff514
fc72e8d2
fc704a6c
fc721542
fc733d29
fc758676
fc7dabc8
fc71f480
fc73217c
fc78e0c2
fc7e2d80
fc7397fa
fc7404be
fc7fe967
fc7d8f1a
fc70661a
fc7121f0
fc71004d
fc7fc8a4
fc767ab8
fc70af38
fc7177dc
fc74f800
fc73a3b8
fc7e735c
fc7d46fc
fc742570
fc75ec42
fc74322e
fc734edc
fc7f01c2
fc736a9a
fc72b066
fc737648
fc7282f6
fc766e0a
fc7072d8
fc70dda9
fc713ebe
fc72f985
fc7b2900
fc78d404
fc729fb3
fc75c094
fc7c0d52
fc7e67ae
fc7cf1a4
fc72cc24
fc75b3e6
fc7ee462
fc7fbcf6
fc70838a
fc7e3a3e
fc716b1f
fc7cb886
fc77525c
fc7ff514
fc72e8d2
fc704a6c
fc721542
fc733d29
fc758676
fc7dabc8
fc71f480
fc73217c
fc78e0c2
fc7e2d80
fc7397fa
fc7404be
fc7fe967
fc7d8f1a
fc70661a
fc7121f0
fc71004d
fc7fc8a4
fc767ab8
fc70af38
fc7177dc
fc74f800
fc73a3b8
fc7e735c
fc7d46fc
fc742570
fc75ec42
fc74322e
fc734edc
fc7f01c2
fc736a9a
fc72b066
fc737648
fc7282f6
fc766e0a
fc7072d8
fc70dda9
fc713ebe
fc72f985
fc7b2900
fc78d404
fc729fb3
fc75c094
fc7c0d52
fc7e67ae
fc7cf1a4
fc72cc24
fc75b3e6
fc7ee462
fc7fbcf6
fc70838a
fc7e3a3e
fc716b1f
fc7cb886
fc77525c
fc7ff514
fc72e8d2
fc704a6c
fc721542
fc733d29
fc758676
fc7dabc8
fc71f480
fc73217c
fc78e0c2
fc7e2d80
fc7397fa
fc7404be
fc7fe967
fc7d8f1a
fc70661a
fc7121f0
fc71004d
fc7fc8a4
fc767ab8
fc70af38
fc7177dc
fc74f800
fc73a3b8
fc7e735c
fc7d46fc
fc742570
fc75ec42
fc74322e
fc734edc
fc7f01c2
fc736a9a
fc72b066
fc737648
fc7282f6
fc766e0a
fc7072d8
fc70dda9
fc713ebe
fc72f985
fc7b2900
fc78d404
fc729fb3
fc75c094
fc7c0d52
fc7e67ae
fc7cf1a4
fc72cc24
fc75b3e6
fc7ee462
fc7fbcf6
fc70838a
fc7e3a3e
fc716b1f
fc7cb886
fc77525c
fc7ff514
fc72e8d2
fc704a6c
fc721542
fc733d29
fc758676
fc7dabc8
fc71f480
fc73217c
fc78e0c2
fc7e2d80
fc7397fa
fc7404be
fc7fe967
fc7d8f1a
fc70661a
fc7121f0
fc71004d
fc7fc8a4
fc767ab8
fc70af38
fc7177dc
fc74f800
fc73a3b8
fc7e735c
fc7d46fc
fc742570
fc75ec42
fc74322e
fc734edc
fc7f01c2
fc736a9a
fc72b066
fc737648
fc7282f6
fc766e0a
fc7072d8
fc70dda9
fc713ebe
fc72f985
fc7b2900
fc78d404
fc729fb3
fc75c094
fc7c0d52
fc7e67ae
fc7cf1a4
fc72cc24
fc75b3e6
fc7ee462
fc7fbcf6
fc70838a
fc7e3a3e
fc716b1f
fc7cb886
fc77525c
fc7ff514
fc72e8d2
fc704a6c
fc721542
fc733d29
fc758676
fc7dabc8
fc71f480
fc73217c
fc78e0c2
fc7e2d80
fc7397fa
fc7404be
fc7fe967
fc7d8f1a
fc70661a
fc7121f0
fc71004d
fc7fc8a4
fc767ab8
fc70af38
fc7177dc
fc74f800
fc73a3b8
fc7e735c
fc7d46fc
fc742570
fc75ec42
fc74322e
fc734edc
fc7f01c2
fc736a9a
fc72b066
fc737648
fc7282f6
fc766e0a
fc7072d8
fc70dda9
fc713ebe
fc72f985
fc7b2900
fc78d404
fc729fb3
fc75c094
fc7c0d52
fc7e67ae
fc7cf1a4
fc72cc24
fc75b3e6
fc7ee462
fc7fbcf6
fc70838a
fc7e3a3e
fc716b1f
fc7cb886
fc77525c
fc7ff514
fc72e8d2
fc704a6c
fc721542
fc733d29
fc758676
fc7dabc8
fc71f480
fc73217c
fc78e0c2
fc7e2d80
fc7397fa
fc7404be
fc7fe967
fc7d8f1a
fc70661a
fc7121f0
fc71004d
fc7fc8a4
fc767ab8
fc70af38
fc7177dc
fc74f800
fc73a3b8
fc7e735c
fc7d46fc
fc742570
fc75ec42
fc74322e
fc734edc
fc7f01c2
fc736a9a
fc72b066
fc737648
fc7282f6
fc766e0a
fc7072d8
fc70dda9
fc713ebe
fc72f985
fc7b2900
fc78d404
fc729fb3
fc75c094
fc7c0d52
fc7e67ae
fc7cf1a4
fc72cc24
fc75b3e6
fc7ee462
fc7fbcf6
fc70838a
fc7e3a3e
fc716b1f
fc7cb886
fc77525c
fc7ff514
fc72e8d2
fc704a6c
fc721542
fc733d29
fc758676
fc7dabc8
fc71f480
fc73217c
fc78e0c2
fc7e2d80
fc7397fa
fc7404be
fc7fe967
fc7d8f1a
fc70661a
fc7121f0
fc71004d
fc7fc8a4
fc767ab8
fc70af38
fc7177dc
fc74f800
fc73a3b8
fc7e735c
fc7d46fc
fc742570
fc75ec42
fc74322e
fc734edc
fc7f01c2
fc736a9a
fc72b066
fc737648
fc7282f6
fc766e0a
fc7072d8
fc70dda9
fc713ebe
fc72f985
fc7b2900
fc78d404
fc729fb3
fc75c094
fc7c0d52
fc7e67ae
fc7cf1a4
fc72cc24
fc75b3e6
fc7ee462
fc7fbcf6
fc70838a
fc7e3a3e
fc716b1f
fc7cb886
fc77525c
fc7ff514
fc72e8d2
fc704a6c
fc721542
fc733d29
fc758676
fc7dabc8
fc71f480
fc73217c
fc78e0c2
fc7e2d80
fc7397fa
fc7404be
fc7fe967
fc7d8f1a
fc70661a
fc7121f0
fc71004d
fc7fc8a4
fc767ab8
fc70af38
fc7177dc
fc74f800
fc73a3b8
fc7e735c
fc7d46fc
fc742570
fc75ec42
fc74322e
fc734edc
fc7f01c2
fc736a9a
fc72b066
fc737648
fc7282f6
fc766e0a
fc7072d8
fc70dda9
fc713ebe
fc72f985
fc7b2900
fc78d404
fc729fb3
fc75c094
fc7c0d52
fc7e67ae
fc7cf1a4
fc72cc24
fc75b3e6
fc7ee462
fc7fbcf6
fc70838a
fc7e3a3e
fc716b1f
fc7cb886
fc77525c
fc7ff514
fc72e8d2
fc704a6c
fc721542
fc733d29
fc758676
fc7dabc8
fc71f480
fc73217c
fc78e0c2
fc7e2d80
fc7397fa
fc7404be
fc7fe967
fc7d8f1a
fc70661a
fc7121f0
fc71004d
fc7fc8a4
fc767ab8
fc70af38
fc7177dc
fc74f800
fc73a3b8
fc7e735c
fc7d46fc
fc742570
fc75ec42
fc74322e
fc734edc
fc7f01c2
fc736a9a
fc72b066
fc737648
fc7282f6
fc766e0a
fc7072d8
fc70dda9
fc713ebe
fc72f985
fc7b2900
fc78d404
fc729fb3
fc75c094
fc7c0d52
fc7e67ae
fc7cf1a4
fc72cc24
fc75b3e6
fc7ee462
fc7fbcf6
fc70838a
fc7e3a3e
fc716b1f
fc7cb886
fc77525c
fc7ff514
fc72e8d2
fc704a6c
fc721542
fc733d29
fc758676
fc7dabc8
fc71f480
fc73217c
fc78e0c2
fc7e2d80
fc7397fa
fc7404be
fc7fe967
fc7d8f1a
fc70661a
fc7121f0
fc71004d
fc7fc8a4
fc767ab8
fc70af38
fc7177dc
fc74f800
fc73a3b8
fc7e735c
fc7d46fc
fc742570
fc75ec42
fc74322e
fc734edc
fc7f01c2
fc736a9a
fc72b066
fc737648
fc7282f6
fc766e0a
fc7072d8
fc70dda9
fc713ebe
fc72f985
fc7b2900
fc78d404
fc729fb3
fc75c094
fc7c0d52
fc7e67ae
fc7cf1a4
fc72cc24
fc75b3e6
fc7ee462
fc7fbcf6
fc70838a
fc7e3a3e
fc716b1f
fc7cb886
fc77525c
fc7ff514
fc72e8d2
fc704a6c
fc721542
fc733d29
fc758676
fc7dabc8
fc71f480
fc73217c
fc78e0c2
fc7e2d80
fc7397fa
fc7404be
fc7fe967
fc7d8f1a
fc70661a
fc7121f0
fc71004d
fc7fc8a4
fc767ab8
fc70af38
fc7177dc
fc74f800
fc73a3b8
fc7e735c
fc7d46fc
fc742570
fc75ec42
fc74322e
fc734edc
fc7f01c2
fc736a9a
fc72b066
fc737648
fc7282f6
fc766e0a
fc7072d8
fc70dda9
fc713ebe
fc72f985
fc7b2900
fc78d404
fc729fb3
fc75c094
fc7c0d52
fc7e67ae
fc7cf1a4
fc72cc24
fc75b3e6
fc7ee462
fc7fbcf6
fc70838a
fc7e3a3e
fc716b1f
fc7cb886
fc77525c
fc7ff514
fc72e8d2
fc704a6c
fc721542
fc733d29
fc758676
fc7dabc8
fc71f480
fc73217c
fc78e0c2
fc7e2d80
fc7397fa
fc7404be
fc7fe967
fc7d8f1a
fc70661a
fc7121f0
fc71004d
fc7fc8a4
fc767ab8
fc70af38
fc7177dc
fc74f800
fc73a3b8
fc7e735c
fc7d46fc
fc742570
fc75ec42
fc74322e
fc734edc
fc7f01c2
fc736a9a
fc72b066
fc737648
fc7282f6
fc766e0a
fc7072d8
fc70dda9
fc713ebe
fc72f985
fc7b2900
fc78d404
fc729fb3
fc75c094
fc7c0d52
fc7e67ae
fc7cf1a4
fc72cc24
fc75b3e6
fc7ee462
fc7fbcf6
fc70838a
fc7e3a3e
fc716b1f
fc7cb886
fc77525c
fc7ff514
fc72e8d2
fc704a6c
fc721542
fc733d29
fc758676
fc7dabc8
fc71f480
fc73217c
fc78e0c2
fc7e2d80
fc7397fa
fc7404be
fc7fe967
fc7d8f1a
fc70661a
fc7121f0
fc71004d
fc7fc8a4
fc767ab8
fc70af38
fc7177dc
fc74f800
fc73a3b8
fc7e735c
fc7d46fc
fc742570
fc75ec42
fc74322e
fc734edc
fc7f01c2
fc736a9a
fc72b066
fc737648
fc7282f6
fc766e0a
fc7072d8
fc70dda9
fc713ebe
fc72f985
fc7b2900
fc78d404
fc729fb3
