fc81bb61
fc81c72f
fc8cc434
fc8a31c9
fc87119b
fc8bb381
fc8c5da5
fc875ab9
fc8d3539
fc8e0ccd
fc8d7e57
fc8f4567
fc85d801
fc8a150b
fc8d08c8
fc8ec3af
fc8f8e85
fc8f5115
fc8adbec
fc867677
fc8aa758
fc8c97c3
fc8b085d
fc89b406
fc8d52a9
fc8f6dd3
fc8c6952
fc8c41f7
fc85f4bf
fc89c0c3
fc8d198b
fc8bfcaf
fc8ddf6d
fc8f9b43
fc8ef01f
fc868225
fc88af01
fc8bcf3f
fc88dc71
fc899353
fc898695
fc8c8a15
fc897ae7
fc801dfb
fc874e0b
fc88f82f
fc8bd0e1
fc894d77
fc8a5e39
fc8a427b
fc8b36ce
fc8804ed
fc8deb1a
fc8eb7f1
fc8039b9
fc81bb61
fc81c72f
fc8cc434
fc8a31c9
fc87119b
fc8bb381
fc8c5da5
fc875ab9
fc8d3539
fc8e0ccd
fc8d7e57
fc8f4567
fc85d801
fc8a150b
fc8d08c8
fc8ec3af
fc8f8e85
fc8f5115
fc8adbec
fc867677
fc8aa758
fc8c97c3
fc8b085d
fc89b406
fc8d52a9
fc8f6dd3
fc8c6952
fc8c41f7
fc85f4bf
fc89c0c3
fc8d198b
fc8bfcaf
fc8ddf6d
fc8f9b43
fc8ef01f
fc868225
fc88af01
fc8bcf3f
fc88dc71
fc899353
fc898695
fc8c8a15
fc897ae7
fc801dfb
fc874e0b
fc88f82f
fc8bd0e1
fc894d77
fc8a5e39
fc8a427b
fc8b36ce
fc8804ed
fc8deb1a
fc8eb7f1
fc8039b9
fc81bb61
fc81c72f
fc8cc434
fc8a31c9
fc87119b
fc8bb381
fc8c5da5
fc875ab9
fc8d3539
fc8e0ccd
fc8d7e57
fc8f4567
fc85d801
fc8a150b
fc8d08c8
fc8ec3af
fc8f8e85
fc8f5115
fc8adbec
fc867677
fc8aa758
fc8c97c3
fc8b085d
fc89b406
fc8d52a9
fc8f6dd3
fc8c6952
fc8c41f7
fc85f4bf
fc89c0c3
fc8d198b
fc8bfcaf
fc8ddf6d
fc8f9b43
fc8ef01f
fc868225
fc88af01
fc8bcf3f
fc88dc71
fc899353
fc898695
fc8c8a15
fc897ae7
fc801dfb
fc874e0b
fc88f82f
fc8bd0e1
fc894d77
fc8a5e39
fc8a427b
fc8b36ce
fc8804ed
fc8deb1a
fc8eb7f1
fc8039b9
fc81bb61
fc81c72f
fc8cc434
fc8a31c9
fc87119b
fc8bb381
fc8c5da5
fc875ab9
fc8d3539
fc8e0ccd
fc8d7e57
fc8f4567
fc85d801
fc8a150b
fc8d08c8
fc8ec3af
fc8f8e85
fc8f5115
fc8adbec
fc867677
fc8aa758
fc8c97c3
fc8b085d
fc89b406
fc8d52a9
fc8f6dd3
fc8c6952
fc8c41f7
fc85f4bf
fc89c0c3
fc8d198b
fc8bfcaf
fc8ddf6d
fc8f9b43
fc8ef01f
fc868225
fc88af01
fc8bcf3f
fc88dc71
fc899353
fc898695
fc8c8a15
fc897ae7
fc801dfb
fc874e0b
fc88f82f
fc8bd0e1
fc894d77
fc8a5e39
fc8a427b
fc8b36ce
fc8804ed
fc8deb1a
fc8eb7f1
fc8039b9
fc81bb61
fc81c72f
fc8cc434
fc8a31c9
fc87119b
fc8bb381
fc8c5da5
fc875ab9
fc8d3539
fc8e0ccd
fc8d7e57
fc8f4567
fc85d801
fc8a150b
fc8d08c8
fc8ec3af
fc8f8e85
fc8f5115
fc8adbec
fc867677
fc8aa758
fc8c97c3
fc8b085d
fc89b406
fc8d52a9
fc8f6dd3
fc8c6952
fc8c41f7
fc85f4bf
fc89c0c3
fc8d198b
fc8bfcaf
fc8ddf6d
fc8f9b43
fc8ef01f
fc868225
fc88af01
fc8bcf3f
fc88dc71
fc899353
fc898695
fc8c8a15
fc897ae7
fc801dfb
fc874e0b
fc88f82f
fc8bd0e1
fc894d77
fc8a5e39
fc8a427b
fc8b36ce
fc8804ed
fc8deb1a
fc8eb7f1
fc8039b9
fc81bb61
fc81c72f
fc8cc434
fc8a31c9
fc87119b
fc8bb381
fc8c5da5
fc875ab9
fc8d3539
fc8e0ccd
fc8d7e57
fc8f4567
fc85d801
fc8a150b
fc8d08c8
fc8ec3af
fc8f8e85
fc8f5115
fc8adbec
fc867677
fc8aa758
fc8c97c3
fc8b085d
fc89b406
fc8d52a9
fc8f6dd3
fc8c6952
fc8c41f7
fc85f4bf
fc89c0c3
fc8d198b
fc8bfcaf
fc8ddf6d
fc8f9b43
fc8ef01f
fc868225
fc88af01
fc8bcf3f
fc88dc71
fc899353
fc898695
fc8c8a15
fc897ae7
fc801dfb
fc874e0b
fc88f82f
fc8bd0e1
fc894d77
fc8a5e39
fc8a427b
fc8b36ce
fc8804ed
fc8deb1a
fc8eb7f1
fc8039b9
fc81bb61
fc81c72f
fc8cc434
fc8a31c9
fc87119b
fc8bb381
fc8c5da5
fc875ab9
fc8d3539
fc8e0ccd
fc8d7e57
fc8f4567
fc85d801
fc8a150b
fc8d08c8
fc8ec3af
fc8f8e85
fc8f5115
fc8adbec
fc867677
fc8aa758
fc8c97c3
fc8b085d
fc89b406
fc8d52a9
fc8f6dd3
fc8c6952
fc8c41f7
fc85f4bf
fc89c0c3
fc8d198b
fc8bfcaf
fc8ddf6d
fc8f9b43
fc8ef01f
fc868225
fc88af01
fc8bcf3f
fc88dc71
fc899353
fc898695
fc8c8a15
fc897ae7
fc801dfb
fc874e0b
fc88f82f
fc8bd0e1
fc894d77
fc8a5e39
fc8a427b
fc8b36ce
fc8804ed
fc8deb1a
fc8eb7f1
fc8039b9
fc81bb61
fc81c72f
fc8cc434
fc8a31c9
fc87119b
fc8bb381
fc8c5da5
fc875ab9
fc8d3539
fc8e0ccd
fc8d7e57
fc8f4567
fc85d801
fc8a150b
fc8d08c8
fc8ec3af
fc8f8e85
fc8f5115
fc8adbec
fc867677
fc8aa758
fc8c97c3
fc8b085d
fc89b406
fc8d52a9
fc8f6dd3
fc8c6952
fc8c41f7
fc85f4bf
fc89c0c3
fc8d198b
fc8bfcaf
fc8ddf6d
fc8f9b43
fc8ef01f
fc868225
fc88af01
fc8bcf3f
fc88dc71
fc899353
fc898695
fc8c8a15
fc897ae7
fc801dfb
fc874e0b
fc88f82f
fc8bd0e1
fc894d77
fc8a5e39
fc8a427b
fc8b36ce
fc8804ed
fc8deb1a
fc8eb7f1
fc8039b9
fc81bb61
fc81c72f
fc8cc434
fc8a31c9
fc87119b
fc8bb381
fc8c5da5
fc875ab9
fc8d3539
fc8e0ccd
fc8d7e57
fc8f4567
fc85d801
fc8a150b
fc8d08c8
fc8ec3af
fc8f8e85
fc8f5115
fc8adbec
fc867677
fc8aa758
fc8c97c3
fc8b085d
fc89b406
fc8d52a9
fc8f6dd3
fc8c6952
fc8c41f7
fc85f4bf
fc89c0c3
fc8d198b
fc8bfcaf
fc8ddf6d
fc8f9b43
fc8ef01f
fc868225
fc88af01
fc8bcf3f
fc88dc71
fc899353
fc898695
fc8c8a15
fc897ae7
fc801dfb
fc874e0b
fc88f82f
fc8bd0e1
fc894d77
fc8a5e39
fc8a427b
fc8b36ce
fc8804ed
fc8deb1a
fc8eb7f1
fc8039b9
fc81bb61
fc81c72f
fc8cc434
fc8a31c9
fc87119b
fc8bb381
fc8c5da5
fc875ab9
fc8d3539
fc8e0ccd
fc8d7e57
fc8f4567
fc85d801
fc8a150b
fc8d08c8
fc8ec3af
fc8f8e85
fc8f5115
fc8adbec
fc867677
fc8aa758
fc8c97c3
fc8b085d
fc89b406
fc8d52a9
fc8f6dd3
fc8c6952
fc8c41f7
fc85f4bf
fc89c0c3
fc8d198b
fc8bfcaf
fc8ddf6d
fc8f9b43
fc8ef01f
fc868225
fc88af01
fc8bcf3f
fc88dc71
fc899353
fc898695
fc8c8a15
fc897ae7
fc801dfb
fc874e0b
fc88f82f
fc8bd0e1
fc894d77
fc8a5e39
fc8a427b
fc8b36ce
fc8804ed
fc8deb1a
fc8eb7f1
fc8039b9
fc81bb61
fc81c72f
fc8cc434
fc8a31c9
fc87119b
fc8bb381
fc8c5da5
fc875ab9
fc8d3539
fc8e0ccd
fc8d7e57
fc8f4567
fc85d801
fc8a150b
fc8d08c8
fc8ec3af
fc8f8e85
fc8f5115
fc8adbec
fc867677
fc8aa758
fc8c97c3
fc8b085d
fc89b406
fc8d52a9
fc8f6dd3
fc8c6952
fc8c41f7
fc85f4bf
fc89c0c3
fc8d198b
fc8bfcaf
fc8ddf6d
fc8f9b43
fc8ef01f
fc868225
fc88af01
fc8bcf3f
fc88dc71
fc899353
fc898695
fc8c8a15
fc897ae7
fc801dfb
fc874e0b
fc88f82f
fc8bd0e1
fc894d77
fc8a5e39
fc8a427b
fc8b36ce
fc8804ed
fc8deb1a
fc8eb7f1
fc8039b9
fc81bb61
fc81c72f
fc8cc434
fc8a31c9
fc87119b
fc8bb381
fc8c5da5
fc875ab9
fc8d3539
fc8e0ccd
fc8d7e57
fc8f4567
fc85d801
fc8a150b
fc8d08c8
fc8ec3af
fc8f8e85
fc8f5115
fc8adbec
fc867677
fc8aa758
fc8c97c3
fc8b085d
fc89b406
fc8d52a9
fc8f6dd3
fc8c6952
fc8c41f7
fc85f4bf
fc89c0c3
fc8d198b
fc8bfcaf
fc8ddf6d
fc8f9b43
fc8ef01f
fc868225
fc88af01
fc8bcf3f
fc88dc71
fc899353
fc898695
fc8c8a15
fc897ae7
fc801dfb
fc874e0b
fc88f82f
fc8bd0e1
fc894d77
fc8a5e39
fc8a427b
fc8b36ce
fc8804ed
fc8deb1a
fc8eb7f1
fc8039b9
fc81bb61
fc81c72f
fc8cc434
fc8a31c9
fc87119b
fc8bb381
fc8c5da5
fc875ab9
fc8d3539
fc8e0ccd
fc8d7e57
fc8f4567
fc85d801
fc8a150b
fc8d08c8
fc8ec3af
fc8f8e85
fc8f5115
fc8adbec
fc867677
fc8aa758
fc8c97c3
fc8b085d
fc89b406
fc8d52a9
fc8f6dd3
fc8c6952
fc8c41f7
fc85f4bf
fc89c0c3
fc8d198b
fc8bfcaf
fc8ddf6d
fc8f9b43
fc8ef01f
fc868225
fc88af01
fc8bcf3f
fc88dc71
fc899353
fc898695
fc8c8a15
fc897ae7
fc801dfb
fc874e0b
fc88f82f
fc8bd0e1
fc894d77
fc8a5e39
fc8a427b
fc8b36ce
fc8804ed
fc8deb1a
fc8eb7f1
fc8039b9
fc81bb61
fc81c72f
fc8cc434
fc8a31c9
fc87119b
fc8bb381
fc8c5da5
fc875ab9
fc8d3539
fc8e0ccd
fc8d7e57
fc8f4567
fc85d801
fc8a150b
fc8d08c8
fc8ec3af
fc8f8e85
fc8f5115
fc8adbec
fc867677
fc8aa758
fc8c97c3
fc8b085d
fc89b406
fc8d52a9
fc8f6dd3
fc8c6952
fc8c41f7
fc85f4bf
fc89c0c3
fc8d198b
fc8bfcaf
fc8ddf6d
fc8f9b43
fc8ef01f
fc868225
fc88af01
fc8bcf3f
fc88dc71
fc899353
fc898695
fc8c8a15
fc897ae7
fc801dfb
fc874e0b
fc88f82f
fc8bd0e1
fc894d77
fc8a5e39
fc8a427b
fc8b36ce
fc8804ed
fc8deb1a
fc8eb7f1
fc8039b9
fc81bb61
fc81c72f
fc8cc434
fc8a31c9
fc87119b
fc8bb381
fc8c5da5
fc875ab9
fc8d3539
fc8e0ccd
fc8d7e57
fc8f4567
fc85d801
fc8a150b
fc8d08c8
fc8ec3af
fc8f8e85
fc8f5115
fc8adbec
fc867677
fc8aa758
fc8c97c3
fc8b085d
fc89b406
fc8d52a9
fc8f6dd3
fc8c6952
fc8c41f7
fc85f4bf
fc89c0c3
fc8d198b
fc8bfcaf
fc8ddf6d
fc8f9b43
fc8ef01f
fc868225
fc88af01
fc8bcf3f
fc88dc71
fc899353
fc898695
fc8c8a15
fc897ae7
fc801dfb
fc874e0b
fc88f82f
fc8bd0e1
fc894d77
fc8a5e39
fc8a427b
fc8b36ce
fc8804ed
fc8deb1a
fc8eb7f1
fc8039b9
fc81bb61
fc81c72f
fc8cc434
fc8a31c9
fc87119b
fc8bb381
fc8c5da5
fc875ab9
fc8d3539
fc8e0ccd
fc8d7e57
fc8f4567
fc85d801
fc8a150b
fc8d08c8
fc8ec3af
fc8f8e85
fc8f5115
fc8adbec
fc867677
fc8aa758
fc8c97c3
fc8b085d
fc89b406
fc8d52a9
fc8f6dd3
fc8c6952
fc8c41f7
fc85f4bf
fc89c0c3
fc8d198b
fc8bfcaf
fc8ddf6d
fc8f9b43
fc8ef01f
fc868225
fc88af01
fc8bcf3f
fc88dc71
fc899353
fc898695
fc8c8a15
fc897ae7
fc801dfb
fc874e0b
fc88f82f
fc8bd0e1
fc894d77
fc8a5e39
fc8a427b
fc8b36ce
fc8804ed
fc8deb1a
fc8eb7f1
fc8039b9
fc81bb61
fc81c72f
fc8cc434
fc8a31c9
fc87119b
fc8bb381
fc8c5da5
fc875ab9
fc8d3539
fc8e0ccd
fc8d7e57
fc8f4567
fc85d801
fc8a150b
fc8d08c8
fc8ec3af
fc8f8e85
fc8f5115
fc8adbec
fc867677
fc8aa758
fc8c97c3
fc8b085d
fc89b406
fc8d52a9
fc8f6dd3
fc8c6952
fc8c41f7
fc85f4bf
fc89c0c3
fc8d198b
fc8bfcaf
fc8ddf6d
fc8f9b43
fc8ef01f
fc868225
fc88af01
fc8bcf3f
fc88dc71
fc899353
fc898695
fc8c8a15
fc897ae7
fc801dfb
fc874e0b
fc88f82f
fc8bd0e1
fc894d77
fc8a5e39
fc8a427b
fc8b36ce
fc8804ed
fc8deb1a
fc8eb7f1
fc8039b9
fc81bb61
fc81c72f
fc8cc434
fc8a31c9
fc87119b
fc8bb381
fc8c5da5
fc875ab9
fc8d3539
fc8e0ccd
fc8d7e57
fc8f4567
fc85d801
fc8a150b
fc8d08c8
fc8ec3af
fc8f8e85
fc8f5115
fc8adbec
fc867677
fc8aa758
fc8c97c3
fc8b085d
fc89b406
fc8d52a9
fc8f6dd3
fc8c6952
fc8c41f7
fc85f4bf
fc89c0c3
fc8d198b
fc8bfcaf
fc8ddf6d
fc8f9b43
fc8ef01f
fc868225
fc88af01
fc8bcf3f
fc88dc71
fc899353
fc898695
fc8c8a15
fc897ae7
fc801dfb
fc874e0b
fc88f82f
fc8bd0e1
fc894d77
fc8a5e39
fc8a427b
fc8b36ce
fc8804ed
fc8deb1a
fc8eb7f1
fc8039b9
fc81bb61
fc81c72f
fc8cc434
fc8a31c9
fc87119b
fc8bb381
fc8c5da5
fc875ab9
fc8d3539
fc8e0ccd
fc8d7e57
fc8f4567
fc85d801
fc8a150b
fc8d08c8
fc8ec3af
fc8f8e85
fc8f5115
fc8adbec
fc867677
fc8aa758
fc8c97c3
fc8b085d
fc89b406
fc8d52a9
fc8f6dd3
fc8c6952
fc8c41f7
fc85f4bf
fc89c0c3
fc8d198b
fc8bfcaf
fc8ddf6d
fc8f9b43
fc8ef01f
fc868225
fc88af01
fc8bcf3f
fc88dc71
fc899353
fc898695
fc8c8a15
fc897ae7
fc801dfb
fc874e0b
fc88f82f
fc8bd0e1
fc894d77
fc8a5e39
fc8a427b
fc8b36ce
fc8804ed
fc8deb1a
fc8eb7f1
fc8039b9
fc81bb61
fc81c72f
fc8cc434
fc8a31c9
fc87119b
fc8bb381
fc8c5da5
fc875ab9
fc8d3539
fc8e0ccd
fc8d7e57
fc8f4567
fc85d801
fc8a150b
fc8d08c8
fc8ec3af
fc8f8e85
fc8f5115
fc8adbec
fc867677
fc8aa758
fc8c97c3
fc8b085d
fc89b406
fc8d52a9
fc8f6dd3
fc8c6952
fc8c41f7
fc85f4bf
fc89c0c3
fc8d198b
fc8bfcaf
fc8ddf6d
fc8f9b43
fc8ef01f
fc868225
fc88af01
fc8bcf3f
fc88dc71
fc899353
fc898695
fc8c8a15
fc897ae7
fc801dfb
fc874e0b
fc88f82f
fc8bd0e1
fc894d77
fc8a5e39
fc8a427b
fc8b36ce
fc8804ed
fc8deb1a
fc8eb7f1
fc8039b9
fc81bb61
fc81c72f
fc8cc434
fc8a31c9
fc87119b
fc8bb381
fc8c5da5
fc875ab9
fc8d3539
fc8e0ccd
fc8d7e57
fc8f4567
fc85d801
fc8a150b
fc8d08c8
fc8ec3af
fc8f8e85
fc8f5115
fc8adbec
fc867677
fc8aa758
fc8c97c3
fc8b085d
fc89b406
fc8d52a9
fc8f6dd3
fc8c6952
fc8c41f7
fc85f4bf
fc89c0c3
fc8d198b
fc8bfcaf
fc8ddf6d
fc8f9b43
fc8ef01f
fc868225
fc88af01
fc8bcf3f
fc88dc71
fc899353
fc898695
fc8c8a15
fc897ae7
fc801dfb
fc874e0b
fc88f82f
fc8bd0e1
fc894d77
fc8a5e39
fc8a427b
fc8b36ce
fc8804ed
fc8deb1a
fc8eb7f1
fc8039b9
fc81bb61
fc81c72f
fc8cc434
fc8a31c9
fc87119b
fc8bb381
fc8c5da5
fc875ab9
fc8d3539
fc8e0ccd
fc8d7e57
fc8f4567
fc85d801
fc8a150b
fc8d08c8
fc8ec3af
fc8f8e85
fc8f5115
fc8adbec
fc867677
fc8aa758
fc8c97c3
fc8b085d
fc89b406
fc8d52a9
fc8f6dd3
fc8c6952
fc8c41f7
fc85f4bf
fc89c0c3
fc8d198b
fc8bfcaf
fc8ddf6d
fc8f9b43
fc8ef01f
fc868225
fc88af01
fc8bcf3f
fc88dc71
fc899353
fc898695
fc8c8a15
fc897ae7
fc801dfb
fc874e0b
fc88f82f
fc8bd0e1
fc894d77
fc8a5e39
fc8a427b
fc8b36ce
fc8804ed
fc8deb1a
fc8eb7f1
fc8039b9
fc81bb61
fc81c72f
fc8cc434
fc8a31c9
fc87119b
fc8bb381
fc8c5da5
fc875ab9
fc8d3539
fc8e0ccd
fc8d7e57
fc8f4567
fc85d801
fc8a150b
fc8d08c8
fc8ec3af
fc8f8e85
fc8f5115
fc8adbec
fc867677
fc8aa758
fc8c97c3
fc8b085d
fc89b406
fc8d52a9
fc8f6dd3
fc8c6952
fc8c41f7
fc85f4bf
fc89c0c3
fc8d198b
fc8bfcaf
fc8ddf6d
fc8f9b43
fc8ef01f
fc868225
fc88af01
fc8bcf3f
fc88dc71
fc899353
fc898695
fc8c8a15
fc897ae7
fc801dfb
fc874e0b
fc88f82f
fc8bd0e1
fc894d77
fc8a5e39
fc8a427b
fc8b36ce
fc8804ed
fc8deb1a
fc8eb7f1
fc8039b9
fc81bb61
fc81c72f
fc8cc434
fc8a31c9
fc87119b
fc8bb381
fc8c5da5
fc875ab9
fc8d3539
fc8e0ccd
fc8d7e57
fc8f4567
fc85d801
fc8a150b
fc8d08c8
fc8ec3af
fc8f8e85
fc8f5115
fc8adbec
fc867677
fc8aa758
fc8c97c3
fc8b085d
fc89b406
fc8d52a9
fc8f6dd3
fc8c6952
fc8c41f7
fc85f4bf
fc89c0c3
fc8d198b
fc8bfcaf
fc8ddf6d
fc8f9b43
fc8ef01f
fc868225
fc88af01
fc8bcf3f
fc88dc71
fc899353
fc898695
fc8c8a15
fc897ae7
fc801dfb
fc874e0b
fc88f82f
fc8bd0e1
fc894d77
fc8a5e39
fc8a427b
fc8b36ce
fc8804ed
fc8deb1a
fc8eb7f1
fc8039b9
fc81bb61
fc81c72f
fc8cc434
fc8a31c9
fc87119b
fc8bb381
fc8c5da5
fc875ab9
fc8d3539
fc8e0ccd
fc8d7e57
fc8f4567
fc85d801
fc8a150b
fc8d08c8
fc8ec3af
fc8f8e85
fc8f5115
fc8adbec
fc867677
fc8aa758
fc8c97c3
fc8b085d
fc89b406
fc8d52a9
fc8f6dd3
fc8c6952
fc8c41f7
fc85f4bf
fc89c0c3
fc8d198b
fc8bfcaf
fc8ddf6d
fc8f9b43
fc8ef01f
fc868225
fc88af01
fc8bcf3f
fc88dc71
fc899353
fc898695
fc8c8a15
fc897ae7
fc801dfb
fc874e0b
fc88f82f
fc8bd0e1
fc894d77
fc8a5e39
fc8a427b
fc8b36ce
fc8804ed
fc8deb1a
fc8eb7f1
fc8039b9
fc81bb61
fc81c72f
fc8cc434
fc8a31c9
fc87119b
fc8bb381
fc8c5da5
fc875ab9
fc8d3539
fc8e0ccd
fc8d7e57
fc8f4567
fc85d801
fc8a150b
fc8d08c8
fc8ec3af
fc8f8e85
fc8f5115
fc8adbec
fc867677
fc8aa758
fc8c97c3
fc8b085d
fc89b406
fc8d52a9
fc8f6dd3
fc8c6952
fc8c41f7
fc85f4bf
fc89c0c3
fc8d198b
fc8bfcaf
fc8ddf6d
fc8f9b43
fc8ef01f
fc868225
fc88af01
fc8bcf3f
fc88dc71
fc899353
fc898695
fc8c8a15
fc897ae7
fc801dfb
fc874e0b
fc88f82f
fc8bd0e1
fc894d77
fc8a5e39
fc8a427b
fc8b36ce
fc8804ed
fc8deb1a
fc8eb7f1
fc8039b9
fc81bb61
fc81c72f
fc8cc434
fc8a31c9
fc87119b
fc8bb381
fc8c5da5
fc875ab9
fc8d3539
fc8e0ccd
fc8d7e57
fc8f4567
fc85d801
fc8a150b
fc8d08c8
fc8ec3af
fc8f8e85
fc8f5115
fc8adbec
fc867677
fc8aa758
fc8c97c3
fc8b085d
fc89b406
fc8d52a9
fc8f6dd3
fc8c6952
fc8c41f7
fc85f4bf
fc89c0c3
fc8d198b
fc8bfcaf
fc8ddf6d
fc8f9b43
fc8ef01f
fc868225
fc88af01
fc8bcf3f
fc88dc71
fc899353
fc898695
fc8c8a15
fc897ae7
fc801dfb
fc874e0b
fc88f82f
fc8bd0e1
fc894d77
fc8a5e39
fc8a427b
fc8b36ce
fc8804ed
fc8deb1a
fc8eb7f1
fc8039b9
fc81bb61
fc81c72f
fc8cc434
fc8a31c9
fc87119b
fc8bb381
fc8c5da5
fc875ab9
fc8d3539
fc8e0ccd
fc8d7e57
fc8f4567
fc85d801
fc8a150b
fc8d08c8
fc8ec3af
fc8f8e85
fc8f5115
fc8adbec
fc867677
fc8aa758
fc8c97c3
fc8b085d
fc89b406
fc8d52a9
fc8f6dd3
fc8c6952
fc8c41f7
fc85f4bf
fc89c0c3
fc8d198b
fc8bfcaf
fc8ddf6d
fc8f9b43
fc8ef01f
fc868225
fc88af01
fc8bcf3f
fc88dc71
fc899353
fc898695
fc8c8a15
fc897ae7
fc801dfb
fc874e0b
fc88f82f
fc8bd0e1
fc894d77
fc8a5e39
fc8a427b
fc8b36ce
fc8804ed
fc8deb1a
fc8eb7f1
fc8039b9
fc81bb61
fc81c72f
fc8cc434
fc8a31c9
fc87119b
fc8bb381
fc8c5da5
fc875ab9
fc8d3539
fc8e0ccd
fc8d7e57
fc8f4567
fc85d801
fc8a150b
fc8d08c8
fc8ec3af
fc8f8e85
fc8f5115
fc8adbec
fc867677
fc8aa758
fc8c97c3
fc8b085d
fc89b406
fc8d52a9
fc8f6dd3
fc8c6952
fc8c41f7
fc85f4bf
fc89c0c3
fc8d198b
fc8bfcaf
fc8ddf6d
fc8f9b43
fc8ef01f
fc868225
fc88af01
fc8bcf3f
fc88dc71
fc899353
fc898695
fc8c8a15
fc897ae7
fc801dfb
fc874e0b
fc88f82f
fc8bd0e1
fc894d77
fc8a5e39
fc8a427b
fc8b36ce
fc8804ed
fc8deb1a
fc8eb7f1
fc8039b9
fc81bb61
fc81c72f
fc8cc434
fc8a31c9
fc87119b
fc8bb381
fc8c5da5
fc875ab9
fc8d3539
fc8e0ccd
fc8d7e57
fc8f4567
fc85d801
fc8a150b
fc8d08c8
fc8ec3af
fc8f8e85
fc8f5115
fc8adbec
fc867677
fc8aa758
fc8c97c3
fc8b085d
fc89b406
fc8d52a9
fc8f6dd3
fc8c6952
fc8c41f7
fc85f4bf
fc89c0c3
fc8d198b
fc8bfcaf
fc8ddf6d
fc8f9b43
fc8ef01f
fc868225
fc88af01
fc8bcf3f
fc88dc71
fc899353
fc898695
fc8c8a15
fc897ae7
fc801dfb
fc874e0b
fc88f82f
fc8bd0e1
fc894d77
fc8a5e39
fc8a427b
fc8b36ce
fc8804ed
fc8deb1a
fc8eb7f1
fc8039b9
fc81bb61
fc81c72f
fc8cc434
fc8a31c9
fc87119b
fc8bb381
fc8c5da5
fc875ab9
fc8d3539
fc8e0ccd
fc8d7e57
fc8f4567
fc85d801
fc8a150b
fc8d08c8
fc8ec3af
fc8f8e85
fc8f5115
fc8adbec
fc867677
fc8aa758
fc8c97c3
fc8b085d
fc89b406
fc8d52a9
fc8f6dd3
fc8c6952
fc8c41f7
fc85f4bf
fc89c0c3
fc8d198b
fc8bfcaf
fc8ddf6d
fc8f9b43
fc8ef01f
fc868225
fc88af01
fc8bcf3f
fc88dc71
fc899353
fc898695
fc8c8a15
fc897ae7
fc801dfb
fc874e0b
fc88f82f
fc8bd0e1
fc894d77
fc8a5e39
fc8a427b
fc8b36ce
fc8804ed
fc8deb1a
fc8eb7f1
fc8039b9
fc81bb61
fc81c72f
fc8cc434
fc8a31c9
fc87119b
fc8bb381
fc8c5da5
fc875ab9
fc8d3539
fc8e0ccd
fc8d7e57
fc8f4567
fc85d801
fc8a150b
fc8d08c8
fc8ec3af
fc8f8e85
fc8f5115
fc8adbec
fc867677
fc8aa758
fc8c97c3
fc8b085d
fc89b406
fc8d52a9
fc8f6dd3
fc8c6952
fc8c41f7
fc85f4bf
fc89c0c3
fc8d198b
fc8bfcaf
fc8ddf6d
fc8f9b43
fc8ef01f
fc868225
fc88af01
fc8bcf3f
fc88dc71
fc899353
fc898695
fc8c8a15
fc897ae7
fc801dfb
fc874e0b
fc88f82f
fc8bd0e1
fc894d77
fc8a5e39
fc8a427b
fc8b36ce
fc8804ed
fc8deb1a
fc8eb7f1
fc8039b9
fc81bb61
fc81c72f
fc8cc434
fc8a31c9
fc87119b
fc8bb381
fc8c5da5
fc875ab9
fc8d3539
fc8e0ccd
fc8d7e57
fc8f4567
fc85d801
fc8a150b
fc8d08c8
fc8ec3af
fc8f8e85
fc8f5115
fc8adbec
fc867677
fc8aa758
fc8c97c3
fc8b085d
fc89b406
fc8d52a9
fc8f6dd3
fc8c6952
fc8c41f7
fc85f4bf
fc89c0c3
fc8d198b
fc8bfcaf
fc8ddf6d
fc8f9b43
fc8ef01f
fc868225
fc88af01
fc8bcf3f
fc88dc71
fc899353
fc898695
fc8c8a15
fc897ae7
fc801dfb
fc874e0b
fc88f82f
fc8bd0e1
fc894d77
fc8a5e39
fc8a427b
fc8b36ce
fc8804ed
fc8deb1a
fc8eb7f1
fc8039b9
fc81bb61
fc81c72f
fc8cc434
fc8a31c9
fc87119b
fc8bb381
fc8c5da5
fc875ab9
fc8d3539
fc8e0ccd
fc8d7e57
fc8f4567
fc85d801
fc8a150b
fc8d08c8
fc8ec3af
fc8f8e85
fc8f5115
fc8adbec
fc867677
fc8aa758
fc8c97c3
fc8b085d
fc89b406
fc8d52a9
fc8f6dd3
fc8c6952
fc8c41f7
fc85f4bf
fc89c0c3
fc8d198b
fc8bfcaf
fc8ddf6d
fc8f9b43
fc8ef01f
fc868225
fc88af01
fc8bcf3f
fc88dc71
fc899353
fc898695
fc8c8a15
fc897ae7
fc801dfb
fc874e0b
fc88f82f
fc8bd0e1
fc894d77
fc8a5e39
fc8a427b
fc8b36ce
fc8804ed
fc8deb1a
fc8eb7f1
fc8039b9
fc81bb61
fc81c72f
fc8cc434
fc8a31c9
fc87119b
fc8bb381
fc8c5da5
fc875ab9
fc8d3539
fc8e0ccd
fc8d7e57
fc8f4567
fc85d801
fc8a150b
fc8d08c8
fc8ec3af
fc8f8e85
fc8f5115
fc8adbec
fc867677
fc8aa758
fc8c97c3
fc8b085d
fc89b406
fc8d52a9
fc8f6dd3
fc8c6952
fc8c41f7
fc85f4bf
fc89c0c3
fc8d198b
fc8bfcaf
fc8ddf6d
fc8f9b43
fc8ef01f
fc868225
fc88af01
fc8bcf3f
fc88dc71
fc899353
fc898695
fc8c8a15
fc897ae7
fc801dfb
fc874e0b
fc88f82f
fc8bd0e1
fc894d77
fc8a5e39
fc8a427b
fc8b36ce
fc8804ed
fc8deb1a
fc8eb7f1
fc8039b9
fc81bb61
fc81c72f
fc8cc434
fc8a31c9
fc87119b
fc8bb381
fc8c5da5
fc875ab9
fc8d3539
fc8e0ccd
fc8d7e57
fc8f4567
fc85d801
fc8a150b
fc8d08c8
fc8ec3af
fc8f8e85
fc8f5115
fc8adbec
fc867677
fc8aa758
fc8c97c3
fc8b085d
fc89b406
fc8d52a9
fc8f6dd3
fc8c6952
fc8c41f7
fc85f4bf
fc89c0c3
fc8d198b
fc8bfcaf
fc8ddf6d
fc8f9b43
fc8ef01f
fc868225
fc88af01
fc8bcf3f
fc88dc71
fc899353
fc898695
fc8c8a15
fc897ae7
fc801dfb
fc874e0b
fc88f82f
fc8bd0e1
fc894d77
fc8a5e39
fc8a427b
fc8b36ce
fc8804ed
fc8deb1a
fc8eb7f1
fc8039b9
fc81bb61
fc81c72f
fc8cc434
fc8a31c9
fc87119b
fc8bb381
fc8c5da5
fc875ab9
fc8d3539
fc8e0ccd
fc8d7e57
fc8f4567
fc85d801
fc8a150b
fc8d08c8
fc8ec3af
fc8f8e85
fc8f5115
fc8adbec
fc867677
fc8aa758
fc8c97c3
fc8b085d
fc89b406
fc8d52a9
fc8f6dd3
fc8c6952
fc8c41f7
fc85f4bf
fc89c0c3
fc8d198b
fc8bfcaf
fc8ddf6d
fc8f9b43
fc8ef01f
fc868225
fc88af01
fc8bcf3f
fc88dc71
fc899353
fc898695
fc8c8a15
fc897ae7
fc801dfb
fc874e0b
fc88f82f
fc8bd0e1
fc894d77
fc8a5e39
fc8a427b
fc8b36ce
fc8804ed
fc8deb1a
fc8eb7f1
fc8039b9
fc81bb61
fc81c72f
fc8cc434
fc8a31c9
fc87119b
fc8bb381
fc8c5da5
fc875ab9
fc8d3539
fc8e0ccd
fc8d7e57
fc8f4567
fc85d801
fc8a150b
fc8d08c8
fc8ec3af
fc8f8e85
fc8f5115
fc8adbec
fc867677
fc8aa758
fc8c97c3
fc8b085d
fc89b406
fc8d52a9
fc8f6dd3
fc8c6952
fc8c41f7
fc85f4bf
fc89c0c3
fc8d198b
fc8bfcaf
fc8ddf6d
fc8f9b43
fc8ef01f
fc868225
fc88af01
fc8bcf3f
fc88dc71
fc899353
fc898695
fc8c8a15
fc897ae7
fc801dfb
fc874e0b
fc88f82f
fc8bd0e1
fc894d77
fc8a5e39
fc8a427b
fc8b36ce
fc8804ed
fc8deb1a
fc8eb7f1
fc8039b9
fc81bb61
fc81c72f
fc8cc434
fc8a31c9
fc87119b
fc8bb381
fc8c5da5
fc875ab9
fc8d3539
fc8e0ccd
fc8d7e57
fc8f4567
fc85d801
fc8a150b
fc8d08c8
fc8ec3af
fc8f8e85
fc8f5115
fc8adbec
fc867677
fc8aa758
fc8c97c3
fc8b085d
fc89b406
fc8d52a9
fc8f6dd3
fc8c6952
fc8c41f7
fc85f4bf
fc89c0c3
fc8d198b
fc8bfcaf
fc8ddf6d
fc8f9b43
fc8ef01f
fc868225
fc88af01
fc8bcf3f
fc88dc71
fc899353
fc898695
fc8c8a15
fc897ae7
fc801dfb
fc874e0b
fc88f82f
fc8bd0e1
fc894d77
fc8a5e39
fc8a427b
fc8b36ce
fc8804ed
fc8deb1a
fc8eb7f1
fc8039b9
fc81bb61
fc81c72f
fc8cc434
fc8a31c9
fc87119b
fc8bb381
fc8c5da5
fc875ab9
fc8d3539
fc8e0ccd
fc8d7e57
fc8f4567
fc85d801
fc8a150b
fc8d08c8
fc8ec3af
fc8f8e85
fc8f5115
fc8adbec
fc867677
fc8aa758
fc8c97c3
fc8b085d
fc89b406
fc8d52a9
fc8f6dd3
fc8c6952
fc8c41f7
fc85f4bf
fc89c0c3
fc8d198b
fc8bfcaf
fc8ddf6d
fc8f9b43
fc8ef01f
fc868225
fc88af01
fc8bcf3f
fc88dc71
fc899353
fc898695
fc8c8a15
fc897ae7
fc801dfb
fc874e0b
fc88f82f
fc8bd0e1
fc894d77
fc8a5e39
fc8a427b
fc8b36ce
fc8804ed
fc8deb1a
fc8eb7f1
fc8039b9
