fc9ae7aa
fc905dd4
fc94006d
fc9aae8c
fc989e5e
fc9b8610
fc91df8c
fc9edb1c
fc926df2
fc972d58
fc95ab90
fc98543f
fc988290
fc93fc68
fc903116
fc964906
fc991016
fc934596
fc939b62
fc953401
fc9655b4
fc962854
fc9865e2
fc95c74e
fc941d2a
fc96d277
fc961c96
fc9700e8
fc956172
fc92c3de
fc9aba3a
fc931826
fc912568
fc9b92ce
fc97e32a
fc927ab0
fc983872
fc97d77c
fc957e20
fc9c1486
fc98cbce
fc995934
fc97b6c9
fc9a0458
fc91eb4a
fc94d30c
fc935144
fc959ade
fc9f6a82
fc938eb5
fc97aa0c
fc94a69b
fc9429d8
fc969fd3
fc92a720
fc992cc4
fc94efba
fc9ae7aa
fc905dd4
fc94006d
fc9aae8c
fc989e5e
fc9b8610
fc91df8c
fc9edb1c
fc926df2
fc972d58
fc95ab90
fc98543f
fc988290
fc93fc68
fc903116
fc964906
fc991016
fc934596
fc939b62
fc953401
fc9655b4
fc962854
fc9865e2
fc95c74e
fc941d2a
fc96d277
fc961c96
fc9700e8
fc956172
fc92c3de
fc9aba3a
fc931826
fc912568
fc9b92ce
fc97e32a
fc927ab0
fc983872
fc97d77c
fc957e20
fc9c1486
fc98cbce
fc995934
fc97b6c9
fc9a0458
fc91eb4a
fc94d30c
fc935144
fc959ade
fc9f6a82
fc938eb5
fc97aa0c
fc94a69b
fc9429d8
fc969fd3
fc92a720
fc992cc4
fc94efba
fc9ae7aa
fc905dd4
fc94006d
fc9aae8c
fc989e5e
fc9b8610
fc91df8c
fc9edb1c
fc926df2
fc972d58
fc95ab90
fc98543f
fc988290
fc93fc68
fc903116
fc964906
fc991016
fc934596
fc939b62
fc953401
fc9655b4
fc962854
fc9865e2
fc95c74e
fc941d2a
fc96d277
fc961c96
fc9700e8
fc956172
fc92c3de
fc9aba3a
fc931826
fc912568
fc9b92ce
fc97e32a
fc927ab0
fc983872
fc97d77c
fc957e20
fc9c1486
fc98cbce
fc995934
fc97b6c9
fc9a0458
fc91eb4a
fc94d30c
fc935144
fc959ade
fc9f6a82
fc938eb5
fc97aa0c
fc94a69b
fc9429d8
fc969fd3
fc92a720
fc992cc4
fc94efba
fc9ae7aa
fc905dd4
fc94006d
fc9aae8c
fc989e5e
fc9b8610
fc91df8c
fc9edb1c
fc926df2
fc972d58
fc95ab90
fc98543f
fc988290
fc93fc68
fc903116
fc964906
fc991016
fc934596
fc939b62
fc953401
fc9655b4
fc962854
fc9865e2
fc95c74e
fc941d2a
fc96d277
fc961c96
fc9700e8
fc956172
fc92c3de
fc9aba3a
fc931826
fc912568
fc9b92ce
fc97e32a
fc927ab0
fc983872
fc97d77c
fc957e20
fc9c1486
fc98cbce
fc995934
fc97b6c9
fc9a0458
fc91eb4a
fc94d30c
fc935144
fc959ade
fc9f6a82
fc938eb5
fc97aa0c
fc94a69b
fc9429d8
fc969fd3
fc92a720
fc992cc4
fc94efba
fc9ae7aa
fc905dd4
fc94006d
fc9aae8c
fc989e5e
fc9b8610
fc91df8c
fc9edb1c
fc926df2
fc972d58
fc95ab90
fc98543f
fc988290
fc93fc68
fc903116
fc964906
fc991016
fc934596
fc939b62
fc953401
fc9655b4
fc962854
fc9865e2
fc95c74e
fc941d2a
fc96d277
fc961c96
fc9700e8
fc956172
fc92c3de
fc9aba3a
fc931826
fc912568
fc9b92ce
fc97e32a
fc927ab0
fc983872
fc97d77c
fc957e20
fc9c1486
fc98cbce
fc995934
fc97b6c9
fc9a0458
fc91eb4a
fc94d30c
fc935144
fc959ade
fc9f6a82
fc938eb5
fc97aa0c
fc94a69b
fc9429d8
fc969fd3
fc92a720
fc992cc4
fc94efba
fc9ae7aa
fc905dd4
fc94006d
fc9aae8c
fc989e5e
fc9b8610
fc91df8c
fc9edb1c
fc926df2
fc972d58
fc95ab90
fc98543f
fc988290
fc93fc68
fc903116
fc964906
fc991016
fc934596
fc939b62
fc953401
fc9655b4
fc962854
fc9865e2
fc95c74e
fc941d2a
fc96d277
fc961c96
fc9700e8
fc956172
fc92c3de
fc9aba3a
fc931826
fc912568
fc9b92ce
fc97e32a
fc927ab0
fc983872
fc97d77c
fc957e20
fc9c1486
fc98cbce
fc995934
fc97b6c9
fc9a0458
fc91eb4a
fc94d30c
fc935144
fc959ade
fc9f6a82
fc938eb5
fc97aa0c
fc94a69b
fc9429d8
fc969fd3
fc92a720
fc992cc4
fc94efba
fc9ae7aa
fc905dd4
fc94006d
fc9aae8c
fc989e5e
fc9b8610
fc91df8c
fc9edb1c
fc926df2
fc972d58
fc95ab90
fc98543f
fc988290
fc93fc68
fc903116
fc964906
fc991016
fc934596
fc939b62
fc953401
fc9655b4
fc962854
fc9865e2
fc95c74e
fc941d2a
fc96d277
fc961c96
fc9700e8
fc956172
fc92c3de
fc9aba3a
fc931826
fc912568
fc9b92ce
fc97e32a
fc927ab0
fc983872
fc97d77c
fc957e20
fc9c1486
fc98cbce
fc995934
fc97b6c9
fc9a0458
fc91eb4a
fc94d30c
fc935144
fc959ade
fc9f6a82
fc938eb5
fc97aa0c
fc94a69b
fc9429d8
fc969fd3
fc92a720
fc992cc4
fc94efba
fc9ae7aa
fc905dd4
fc94006d
fc9aae8c
fc989e5e
fc9b8610
fc91df8c
fc9edb1c
fc926df2
fc972d58
fc95ab90
fc98543f
fc988290
fc93fc68
fc903116
fc964906
fc991016
fc934596
fc939b62
fc953401
fc9655b4
fc962854
fc9865e2
fc95c74e
fc941d2a
fc96d277
fc961c96
fc9700e8
fc956172
fc92c3de
fc9aba3a
fc931826
fc912568
fc9b92ce
fc97e32a
fc927ab0
fc983872
fc97d77c
fc957e20
fc9c1486
fc98cbce
fc995934
fc97b6c9
fc9a0458
fc91eb4a
fc94d30c
fc935144
fc959ade
fc9f6a82
fc938eb5
fc97aa0c
fc94a69b
fc9429d8
fc969fd3
fc92a720
fc992cc4
fc94efba
fc9ae7aa
fc905dd4
fc94006d
fc9aae8c
fc989e5e
fc9b8610
fc91df8c
fc9edb1c
fc926df2
fc972d58
fc95ab90
fc98543f
fc988290
fc93fc68
fc903116
fc964906
fc991016
fc934596
fc939b62
fc953401
fc9655b4
fc962854
fc9865e2
fc95c74e
fc941d2a
fc96d277
fc961c96
fc9700e8
fc956172
fc92c3de
fc9aba3a
fc931826
fc912568
fc9b92ce
fc97e32a
fc927ab0
fc983872
fc97d77c
fc957e20
fc9c1486
fc98cbce
fc995934
fc97b6c9
fc9a0458
fc91eb4a
fc94d30c
fc935144
fc959ade
fc9f6a82
fc938eb5
fc97aa0c
fc94a69b
fc9429d8
fc969fd3
fc92a720
fc992cc4
fc94efba
fc9ae7aa
fc905dd4
fc94006d
fc9aae8c
fc989e5e
fc9b8610
fc91df8c
fc9edb1c
fc926df2
fc972d58
fc95ab90
fc98543f
fc988290
fc93fc68
fc903116
fc964906
fc991016
fc934596
fc939b62
fc953401
fc9655b4
fc962854
fc9865e2
fc95c74e
fc941d2a
fc96d277
fc961c96
fc9700e8
fc956172
fc92c3de
fc9aba3a
fc931826
fc912568
fc9b92ce
fc97e32a
fc927ab0
fc983872
fc97d77c
fc957e20
fc9c1486
fc98cbce
fc995934
fc97b6c9
fc9a0458
fc91eb4a
fc94d30c
fc935144
fc959ade
fc9f6a82
fc938eb5
fc97aa0c
fc94a69b
fc9429d8
fc969fd3
fc92a720
fc992cc4
fc94efba
fc9ae7aa
fc905dd4
fc94006d
fc9aae8c
fc989e5e
fc9b8610
fc91df8c
fc9edb1c
fc926df2
fc972d58
fc95ab90
fc98543f
fc988290
fc93fc68
fc903116
fc964906
fc991016
fc934596
fc939b62
fc953401
fc9655b4
fc962854
fc9865e2
fc95c74e
fc941d2a
fc96d277
fc961c96
fc9700e8
fc956172
fc92c3de
fc9aba3a
fc931826
fc912568
fc9b92ce
fc97e32a
fc927ab0
fc983872
fc97d77c
fc957e20
fc9c1486
fc98cbce
fc995934
fc97b6c9
fc9a0458
fc91eb4a
fc94d30c
fc935144
fc959ade
fc9f6a82
fc938eb5
fc97aa0c
fc94a69b
fc9429d8
fc969fd3
fc92a720
fc992cc4
fc94efba
fc9ae7aa
fc905dd4
fc94006d
fc9aae8c
fc989e5e
fc9b8610
fc91df8c
fc9edb1c
fc926df2
fc972d58
fc95ab90
fc98543f
fc988290
fc93fc68
fc903116
fc964906
fc991016
fc934596
fc939b62
fc953401
fc9655b4
fc962854
fc9865e2
fc95c74e
fc941d2a
fc96d277
fc961c96
fc9700e8
fc956172
fc92c3de
fc9aba3a
fc931826
fc912568
fc9b92ce
fc97e32a
fc927ab0
fc983872
fc97d77c
fc957e20
fc9c1486
fc98cbce
fc995934
fc97b6c9
fc9a0458
fc91eb4a
fc94d30c
fc935144
fc959ade
fc9f6a82
fc938eb5
fc97aa0c
fc94a69b
fc9429d8
fc969fd3
fc92a720
fc992cc4
fc94efba
fc9ae7aa
fc905dd4
fc94006d
fc9aae8c
fc989e5e
fc9b8610
fc91df8c
fc9edb1c
fc926df2
fc972d58
fc95ab90
fc98543f
fc988290
fc93fc68
fc903116
fc964906
fc991016
fc934596
fc939b62
fc953401
fc9655b4
fc962854
fc9865e2
fc95c74e
fc941d2a
fc96d277
fc961c96
fc9700e8
fc956172
fc92c3de
fc9aba3a
fc931826
fc912568
fc9b92ce
fc97e32a
fc927ab0
fc983872
fc97d77c
fc957e20
fc9c1486
fc98cbce
fc995934
fc97b6c9
fc9a0458
fc91eb4a
fc94d30c
fc935144
fc959ade
fc9f6a82
fc938eb5
fc97aa0c
fc94a69b
fc9429d8
fc969fd3
fc92a720
fc992cc4
fc94efba
fc9ae7aa
fc905dd4
fc94006d
fc9aae8c
fc989e5e
fc9b8610
fc91df8c
fc9edb1c
fc926df2
fc972d58
fc95ab90
fc98543f
fc988290
fc93fc68
fc903116
fc964906
fc991016
fc934596
fc939b62
fc953401
fc9655b4
fc962854
fc9865e2
fc95c74e
fc941d2a
fc96d277
fc961c96
fc9700e8
fc956172
fc92c3de
fc9aba3a
fc931826
fc912568
fc9b92ce
fc97e32a
fc927ab0
fc983872
fc97d77c
fc957e20
fc9c1486
fc98cbce
fc995934
fc97b6c9
fc9a0458
fc91eb4a
fc94d30c
fc935144
fc959ade
fc9f6a82
fc938eb5
fc97aa0c
fc94a69b
fc9429d8
fc969fd3
fc92a720
fc992cc4
fc94efba
fc9ae7aa
fc905dd4
fc94006d
fc9aae8c
fc989e5e
fc9b8610
fc91df8c
fc9edb1c
fc926df2
fc972d58
fc95ab90
fc98543f
fc988290
fc93fc68
fc903116
fc964906
fc991016
fc934596
fc939b62
fc953401
fc9655b4
fc962854
fc9865e2
fc95c74e
fc941d2a
fc96d277
fc961c96
fc9700e8
fc956172
fc92c3de
fc9aba3a
fc931826
fc912568
fc9b92ce
fc97e32a
fc927ab0
fc983872
fc97d77c
fc957e20
fc9c1486
fc98cbce
fc995934
fc97b6c9
fc9a0458
fc91eb4a
fc94d30c
fc935144
fc959ade
fc9f6a82
fc938eb5
fc97aa0c
fc94a69b
fc9429d8
fc969fd3
fc92a720
fc992cc4
fc94efba
fc9ae7aa
fc905dd4
fc94006d
fc9aae8c
fc989e5e
fc9b8610
fc91df8c
fc9edb1c
fc926df2
fc972d58
fc95ab90
fc98543f
fc988290
fc93fc68
fc903116
fc964906
fc991016
fc934596
fc939b62
fc953401
fc9655b4
fc962854
fc9865e2
fc95c74e
fc941d2a
fc96d277
fc961c96
fc9700e8
fc956172
fc92c3de
fc9aba3a
fc931826
fc912568
fc9b92ce
fc97e32a
fc927ab0
fc983872
fc97d77c
fc957e20
fc9c1486
fc98cbce
fc995934
fc97b6c9
fc9a0458
fc91eb4a
fc94d30c
fc935144
fc959ade
fc9f6a82
fc938eb5
fc97aa0c
fc94a69b
fc9429d8
fc969fd3
fc92a720
fc992cc4
fc94efba
fc9ae7aa
fc905dd4
fc94006d
fc9aae8c
fc989e5e
fc9b8610
fc91df8c
fc9edb1c
fc926df2
fc972d58
fc95ab90
fc98543f
fc988290
fc93fc68
fc903116
fc964906
fc991016
fc934596
fc939b62
fc953401
fc9655b4
fc962854
fc9865e2
fc95c74e
fc941d2a
fc96d277
fc961c96
fc9700e8
fc956172
fc92c3de
fc9aba3a
fc931826
fc912568
fc9b92ce
fc97e32a
fc927ab0
fc983872
fc97d77c
fc957e20
fc9c1486
fc98cbce
fc995934
fc97b6c9
fc9a0458
fc91eb4a
fc94d30c
fc935144
fc959ade
fc9f6a82
fc938eb5
fc97aa0c
fc94a69b
fc9429d8
fc969fd3
fc92a720
fc992cc4
fc94efba
fc9ae7aa
fc905dd4
fc94006d
fc9aae8c
fc989e5e
fc9b8610
fc91df8c
fc9edb1c
fc926df2
fc972d58
fc95ab90
fc98543f
fc988290
fc93fc68
fc903116
fc964906
fc991016
fc934596
fc939b62
fc953401
fc9655b4
fc962854
fc9865e2
fc95c74e
fc941d2a
fc96d277
fc961c96
fc9700e8
fc956172
fc92c3de
fc9aba3a
fc931826
fc912568
fc9b92ce
fc97e32a
fc927ab0
fc983872
fc97d77c
fc957e20
fc9c1486
fc98cbce
fc995934
fc97b6c9
fc9a0458
fc91eb4a
fc94d30c
fc935144
fc959ade
fc9f6a82
fc938eb5
fc97aa0c
fc94a69b
fc9429d8
fc969fd3
fc92a720
fc992cc4
fc94efba
fc9ae7aa
fc905dd4
fc94006d
fc9aae8c
fc989e5e
fc9b8610
fc91df8c
fc9edb1c
fc926df2
fc972d58
fc95ab90
fc98543f
fc988290
fc93fc68
fc903116
fc964906
fc991016
fc934596
fc939b62
fc953401
fc9655b4
fc962854
fc9865e2
fc95c74e
fc941d2a
fc96d277
fc961c96
fc9700e8
fc956172
fc92c3de
fc9aba3a
fc931826
fc912568
fc9b92ce
fc97e32a
fc927ab0
fc983872
fc97d77c
fc957e20
fc9c1486
fc98cbce
fc995934
fc97b6c9
fc9a0458
fc91eb4a
fc94d30c
fc935144
fc959ade
fc9f6a82
fc938eb5
fc97aa0c
fc94a69b
fc9429d8
fc969fd3
fc92a720
fc992cc4
fc94efba
fc9ae7aa
fc905dd4
fc94006d
fc9aae8c
fc989e5e
fc9b8610
fc91df8c
fc9edb1c
fc926df2
fc972d58
fc95ab90
fc98543f
fc988290
fc93fc68
fc903116
fc964906
fc991016
fc934596
fc939b62
fc953401
fc9655b4
fc962854
fc9865e2
fc95c74e
fc941d2a
fc96d277
fc961c96
fc9700e8
fc956172
fc92c3de
fc9aba3a
fc931826
fc912568
fc9b92ce
fc97e32a
fc927ab0
fc983872
fc97d77c
fc957e20
fc9c1486
fc98cbce
fc995934
fc97b6c9
fc9a0458
fc91eb4a
fc94d30c
fc935144
fc959ade
fc9f6a82
fc938eb5
fc97aa0c
fc94a69b
fc9429d8
fc969fd3
fc92a720
fc992cc4
fc94efba
fc9ae7aa
fc905dd4
fc94006d
fc9aae8c
fc989e5e
fc9b8610
fc91df8c
fc9edb1c
fc926df2
fc972d58
fc95ab90
fc98543f
fc988290
fc93fc68
fc903116
fc964906
fc991016
fc934596
fc939b62
fc953401
fc9655b4
fc962854
fc9865e2
fc95c74e
fc941d2a
fc96d277
fc961c96
fc9700e8
fc956172
fc92c3de
fc9aba3a
fc931826
fc912568
fc9b92ce
fc97e32a
fc927ab0
fc983872
fc97d77c
fc957e20
fc9c1486
fc98cbce
fc995934
fc97b6c9
fc9a0458
fc91eb4a
fc94d30c
fc935144
fc959ade
fc9f6a82
fc938eb5
fc97aa0c
fc94a69b
fc9429d8
fc969fd3
fc92a720
fc992cc4
fc94efba
fc9ae7aa
fc905dd4
fc94006d
fc9aae8c
fc989e5e
fc9b8610
fc91df8c
fc9edb1c
fc926df2
fc972d58
fc95ab90
fc98543f
fc988290
fc93fc68
fc903116
fc964906
fc991016
fc934596
fc939b62
fc953401
fc9655b4
fc962854
fc9865e2
fc95c74e
fc941d2a
fc96d277
fc961c96
fc9700e8
fc956172
fc92c3de
fc9aba3a
fc931826
fc912568
fc9b92ce
fc97e32a
fc927ab0
fc983872
fc97d77c
fc957e20
fc9c1486
fc98cbce
fc995934
fc97b6c9
fc9a0458
fc91eb4a
fc94d30c
fc935144
fc959ade
fc9f6a82
fc938eb5
fc97aa0c
fc94a69b
fc9429d8
fc969fd3
fc92a720
fc992cc4
fc94efba
fc9ae7aa
fc905dd4
fc94006d
fc9aae8c
fc989e5e
fc9b8610
fc91df8c
fc9edb1c
fc926df2
fc972d58
fc95ab90
fc98543f
fc988290
fc93fc68
fc903116
fc964906
fc991016
fc934596
fc939b62
fc953401
fc9655b4
fc962854
fc9865e2
fc95c74e
fc941d2a
fc96d277
fc961c96
fc9700e8
fc956172
fc92c3de
fc9aba3a
fc931826
fc912568
fc9b92ce
fc97e32a
fc927ab0
fc983872
fc97d77c
fc957e20
fc9c1486
fc98cbce
fc995934
fc97b6c9
fc9a0458
fc91eb4a
fc94d30c
fc935144
fc959ade
fc9f6a82
fc938eb5
fc97aa0c
fc94a69b
fc9429d8
fc969fd3
fc92a720
fc992cc4
fc94efba
fc9ae7aa
fc905dd4
fc94006d
fc9aae8c
fc989e5e
fc9b8610
fc91df8c
fc9edb1c
fc926df2
fc972d58
fc95ab90
fc98543f
fc988290
fc93fc68
fc903116
fc964906
fc991016
fc934596
fc939b62
fc953401
fc9655b4
fc962854
fc9865e2
fc95c74e
fc941d2a
fc96d277
fc961c96
fc9700e8
fc956172
fc92c3de
fc9aba3a
fc931826
fc912568
fc9b92ce
fc97e32a
fc927ab0
fc983872
fc97d77c
fc957e20
fc9c1486
fc98cbce
fc995934
fc97b6c9
fc9a0458
fc91eb4a
fc94d30c
fc935144
fc959ade
fc9f6a82
fc938eb5
fc97aa0c
fc94a69b
fc9429d8
fc969fd3
fc92a720
fc992cc4
fc94efba
fc9ae7aa
fc905dd4
fc94006d
fc9aae8c
fc989e5e
fc9b8610
fc91df8c
fc9edb1c
fc926df2
fc972d58
fc95ab90
fc98543f
fc988290
fc93fc68
fc903116
fc964906
fc991016
fc934596
fc939b62
fc953401
fc9655b4
fc962854
fc9865e2
fc95c74e
fc941d2a
fc96d277
fc961c96
fc9700e8
fc956172
fc92c3de
fc9aba3a
fc931826
fc912568
fc9b92ce
fc97e32a
fc927ab0
fc983872
fc97d77c
fc957e20
fc9c1486
fc98cbce
fc995934
fc97b6c9
fc9a0458
fc91eb4a
fc94d30c
fc935144
fc959ade
fc9f6a82
fc938eb5
fc97aa0c
fc94a69b
fc9429d8
fc969fd3
fc92a720
fc992cc4
fc94efba
fc9ae7aa
fc905dd4
fc94006d
fc9aae8c
fc989e5e
fc9b8610
fc91df8c
fc9edb1c
fc926df2
fc972d58
fc95ab90
fc98543f
fc988290
fc93fc68
fc903116
fc964906
fc991016
fc934596
fc939b62
fc953401
fc9655b4
fc962854
fc9865e2
fc95c74e
fc941d2a
fc96d277
fc961c96
fc9700e8
fc956172
fc92c3de
fc9aba3a
fc931826
fc912568
fc9b92ce
fc97e32a
fc927ab0
fc983872
fc97d77c
fc957e20
fc9c1486
fc98cbce
fc995934
fc97b6c9
fc9a0458
fc91eb4a
fc94d30c
fc935144
fc959ade
fc9f6a82
fc938eb5
fc97aa0c
fc94a69b
fc9429d8
fc969fd3
fc92a720
fc992cc4
fc94efba
fc9ae7aa
fc905dd4
fc94006d
fc9aae8c
fc989e5e
fc9b8610
fc91df8c
fc9edb1c
fc926df2
fc972d58
fc95ab90
fc98543f
fc988290
fc93fc68
fc903116
fc964906
fc991016
fc934596
fc939b62
fc953401
fc9655b4
fc962854
fc9865e2
fc95c74e
fc941d2a
fc96d277
fc961c96
fc9700e8
fc956172
fc92c3de
fc9aba3a
fc931826
fc912568
fc9b92ce
fc97e32a
fc927ab0
fc983872
fc97d77c
fc957e20
fc9c1486
fc98cbce
fc995934
fc97b6c9
fc9a0458
fc91eb4a
fc94d30c
fc935144
fc959ade
fc9f6a82
fc938eb5
fc97aa0c
fc94a69b
fc9429d8
fc969fd3
fc92a720
fc992cc4
fc94efba
fc9ae7aa
fc905dd4
fc94006d
fc9aae8c
fc989e5e
fc9b8610
fc91df8c
fc9edb1c
fc926df2
fc972d58
fc95ab90
fc98543f
fc988290
fc93fc68
fc903116
fc964906
fc991016
fc934596
fc939b62
fc953401
fc9655b4
fc962854
fc9865e2
fc95c74e
fc941d2a
fc96d277
fc961c96
fc9700e8
fc956172
fc92c3de
fc9aba3a
fc931826
fc912568
fc9b92ce
fc97e32a
fc927ab0
fc983872
fc97d77c
fc957e20
fc9c1486
fc98cbce
fc995934
fc97b6c9
fc9a0458
fc91eb4a
fc94d30c
fc935144
fc959ade
fc9f6a82
fc938eb5
fc97aa0c
fc94a69b
fc9429d8
fc969fd3
fc92a720
fc992cc4
fc94efba
fc9ae7aa
fc905dd4
fc94006d
fc9aae8c
fc989e5e
fc9b8610
fc91df8c
fc9edb1c
fc926df2
fc972d58
fc95ab90
fc98543f
fc988290
fc93fc68
fc903116
fc964906
fc991016
fc934596
fc939b62
fc953401
fc9655b4
fc962854
fc9865e2
fc95c74e
fc941d2a
fc96d277
fc961c96
fc9700e8
fc956172
fc92c3de
fc9aba3a
fc931826
fc912568
fc9b92ce
fc97e32a
fc927ab0
fc983872
fc97d77c
fc957e20
fc9c1486
fc98cbce
fc995934
fc97b6c9
fc9a0458
fc91eb4a
fc94d30c
fc935144
fc959ade
fc9f6a82
fc938eb5
fc97aa0c
fc94a69b
fc9429d8
fc969fd3
fc92a720
fc992cc4
fc94efba
fc9ae7aa
fc905dd4
fc94006d
fc9aae8c
fc989e5e
fc9b8610
fc91df8c
fc9edb1c
fc926df2
fc972d58
fc95ab90
fc98543f
fc988290
fc93fc68
fc903116
fc964906
fc991016
fc934596
fc939b62
fc953401
fc9655b4
fc962854
fc9865e2
fc95c74e
fc941d2a
fc96d277
fc961c96
fc9700e8
fc956172
fc92c3de
fc9aba3a
fc931826
fc912568
fc9b92ce
fc97e32a
fc927ab0
fc983872
fc97d77c
fc957e20
fc9c1486
fc98cbce
fc995934
fc97b6c9
fc9a0458
fc91eb4a
fc94d30c
fc935144
fc959ade
fc9f6a82
fc938eb5
fc97aa0c
fc94a69b
fc9429d8
fc969fd3
fc92a720
fc992cc4
fc94efba
fc9ae7aa
fc905dd4
fc94006d
fc9aae8c
fc989e5e
fc9b8610
fc91df8c
fc9edb1c
fc926df2
fc972d58
fc95ab90
fc98543f
fc988290
fc93fc68
fc903116
fc964906
fc991016
fc934596
fc939b62
fc953401
fc9655b4
fc962854
fc9865e2
fc95c74e
fc941d2a
fc96d277
fc961c96
fc9700e8
fc956172
fc92c3de
fc9aba3a
fc931826
fc912568
fc9b92ce
fc97e32a
fc927ab0
fc983872
fc97d77c
fc957e20
fc9c1486
fc98cbce
fc995934
fc97b6c9
fc9a0458
fc91eb4a
fc94d30c
fc935144
fc959ade
fc9f6a82
fc938eb5
fc97aa0c
fc94a69b
fc9429d8
fc969fd3
fc92a720
fc992cc4
fc94efba
fc9ae7aa
fc905dd4
fc94006d
fc9aae8c
fc989e5e
fc9b8610
fc91df8c
fc9edb1c
fc926df2
fc972d58
fc95ab90
fc98543f
fc988290
fc93fc68
fc903116
fc964906
fc991016
fc934596
fc939b62
fc953401
fc9655b4
fc962854
fc9865e2
fc95c74e
fc941d2a
fc96d277
fc961c96
fc9700e8
fc956172
fc92c3de
fc9aba3a
fc931826
fc912568
fc9b92ce
fc97e32a
fc927ab0
fc983872
fc97d77c
fc957e20
fc9c1486
fc98cbce
fc995934
fc97b6c9
fc9a0458
fc91eb4a
fc94d30c
fc935144
fc959ade
fc9f6a82
fc938eb5
fc97aa0c
fc94a69b
fc9429d8
fc969fd3
fc92a720
fc992cc4
fc94efba
fc9ae7aa
fc905dd4
fc94006d
fc9aae8c
fc989e5e
fc9b8610
fc91df8c
fc9edb1c
fc926df2
fc972d58
fc95ab90
fc98543f
fc988290
fc93fc68
fc903116
fc964906
fc991016
fc934596
fc939b62
fc953401
fc9655b4
fc962854
fc9865e2
fc95c74e
fc941d2a
fc96d277
fc961c96
fc9700e8
fc956172
fc92c3de
fc9aba3a
fc931826
fc912568
fc9b92ce
fc97e32a
fc927ab0
fc983872
fc97d77c
fc957e20
fc9c1486
fc98cbce
fc995934
fc97b6c9
fc9a0458
fc91eb4a
fc94d30c
fc935144
fc959ade
fc9f6a82
fc938eb5
fc97aa0c
fc94a69b
fc9429d8
fc969fd3
fc92a720
fc992cc4
fc94efba
fc9ae7aa
fc905dd4
fc94006d
fc9aae8c
fc989e5e
fc9b8610
fc91df8c
fc9edb1c
fc926df2
fc972d58
fc95ab90
fc98543f
fc988290
fc93fc68
fc903116
fc964906
fc991016
fc934596
fc939b62
fc953401
fc9655b4
fc962854
fc9865e2
fc95c74e
fc941d2a
fc96d277
fc961c96
fc9700e8
fc956172
fc92c3de
fc9aba3a
fc931826
fc912568
fc9b92ce
fc97e32a
fc927ab0
fc983872
fc97d77c
fc957e20
fc9c1486
fc98cbce
fc995934
fc97b6c9
fc9a0458
fc91eb4a
fc94d30c
fc935144
fc959ade
fc9f6a82
fc938eb5
fc97aa0c
fc94a69b
fc9429d8
fc969fd3
fc92a720
fc992cc4
fc94efba
fc9ae7aa
fc905dd4
fc94006d
fc9aae8c
fc989e5e
fc9b8610
fc91df8c
fc9edb1c
fc926df2
fc972d58
fc95ab90
fc98543f
fc988290
fc93fc68
fc903116
fc964906
fc991016
fc934596
fc939b62
fc953401
fc9655b4
fc962854
fc9865e2
fc95c74e
fc941d2a
fc96d277
fc961c96
fc9700e8
fc956172
fc92c3de
fc9aba3a
fc931826
fc912568
fc9b92ce
fc97e32a
fc927ab0
fc983872
fc97d77c
fc957e20
fc9c1486
fc98cbce
fc995934
fc97b6c9
fc9a0458
fc91eb4a
fc94d30c
fc935144
fc959ade
fc9f6a82
fc938eb5
fc97aa0c
fc94a69b
fc9429d8
fc969fd3
fc92a720
fc992cc4
fc94efba
fc9ae7aa
fc905dd4
fc94006d
fc9aae8c
fc989e5e
fc9b8610
fc91df8c
fc9edb1c
fc926df2
fc972d58
fc95ab90
fc98543f
fc988290
fc93fc68
fc903116
fc964906
fc991016
fc934596
fc939b62
fc953401
fc9655b4
fc962854
fc9865e2
fc95c74e
fc941d2a
fc96d277
fc961c96
fc9700e8
fc956172
fc92c3de
fc9aba3a
fc931826
fc912568
fc9b92ce
fc97e32a
fc927ab0
fc983872
fc97d77c
fc957e20
fc9c1486
fc98cbce
fc995934
fc97b6c9
fc9a0458
fc91eb4a
fc94d30c
fc935144
fc959ade
fc9f6a82
fc938eb5
fc97aa0c
fc94a69b
fc9429d8
fc969fd3
fc92a720
fc992cc4
fc94efba
fc9ae7aa
fc905dd4
fc94006d
fc9aae8c
fc989e5e
fc9b8610
fc91df8c
fc9edb1c
fc926df2
fc972d58
fc95ab90
fc98543f
fc988290
fc93fc68
fc903116
fc964906
fc991016
fc934596
fc939b62
fc953401
fc9655b4
fc962854
fc9865e2
fc95c74e
fc941d2a
fc96d277
fc961c96
fc9700e8
fc956172
fc92c3de
fc9aba3a
fc931826
fc912568
fc9b92ce
fc97e32a
fc927ab0
fc983872
fc97d77c
fc957e20
fc9c1486
fc98cbce
fc995934
fc97b6c9
fc9a0458
fc91eb4a
fc94d30c
fc935144
fc959ade
fc9f6a82
fc938eb5
fc97aa0c
fc94a69b
fc9429d8
fc969fd3
fc92a720
fc992cc4
fc94efba
fc9ae7aa
fc905dd4
fc94006d
fc9aae8c
fc989e5e
fc9b8610
fc91df8c
fc9edb1c
fc926df2
fc972d58
fc95ab90
fc98543f
fc988290
fc93fc68
fc903116
fc964906
fc991016
fc934596
fc939b62
fc953401
fc9655b4
fc962854
fc9865e2
fc95c74e
fc941d2a
fc96d277
fc961c96
fc9700e8
fc956172
fc92c3de
fc9aba3a
fc931826
fc912568
fc9b92ce
fc97e32a
fc927ab0
fc983872
fc97d77c
fc957e20
fc9c1486
fc98cbce
fc995934
fc97b6c9
fc9a0458
fc91eb4a
fc94d30c
fc935144
fc959ade
fc9f6a82
fc938eb5
fc97aa0c
fc94a69b
fc9429d8
fc969fd3
fc92a720
fc992cc4
fc94efba
fc9ae7aa
fc905dd4
fc94006d
fc9aae8c
fc989e5e
fc9b8610
fc91df8c
fc9edb1c
fc926df2
fc972d58
fc95ab90
fc98543f
fc988290
fc93fc68
fc903116
fc964906
fc991016
fc934596
fc939b62
fc953401
fc9655b4
fc962854
fc9865e2
fc95c74e
fc941d2a
fc96d277
fc961c96
fc9700e8
fc956172
fc92c3de
fc9aba3a
fc931826
fc912568
fc9b92ce
fc97e32a
fc927ab0
fc983872
fc97d77c
fc957e20
fc9c1486
fc98cbce
fc995934
fc97b6c9
fc9a0458
fc91eb4a
fc94d30c
fc935144
fc959ade
fc9f6a82
fc938eb5
fc97aa0c
fc94a69b
fc9429d8
fc969fd3
fc92a720
fc992cc4
fc94efba
fc9ae7aa
fc905dd4
fc94006d
fc9aae8c
fc989e5e
fc9b8610
fc91df8c
fc9edb1c
fc926df2
fc972d58
fc95ab90
fc98543f
fc988290
fc93fc68
fc903116
fc964906
fc991016
fc934596
fc939b62
fc953401
fc9655b4
fc962854
fc9865e2
fc95c74e
fc941d2a
fc96d277
fc961c96
fc9700e8
fc956172
fc92c3de
fc9aba3a
fc931826
fc912568
fc9b92ce
fc97e32a
fc927ab0
fc983872
fc97d77c
fc957e20
fc9c1486
fc98cbce
fc995934
fc97b6c9
fc9a0458
fc91eb4a
fc94d30c
fc935144
fc959ade
fc9f6a82
fc938eb5
fc97aa0c
fc94a69b
fc9429d8
fc969fd3
fc92a720
fc992cc4
fc94efba
